// Gerado por train_models.py — Detection of Acoustic Anomalies
// Modelo MFCC+MLP: Dense(13->16,relu)->Dense(16->32,relu)->Dense(32->1,sigmoid)
// Features: 13 coeficientes MFCC normalizados (StandardScaler)
// Acuracia treino: 92.1%  val: 84.0%  teste: 80.3%
// float32 | 5356 bytes

#include "model.h"

alignas(8) const unsigned char g_model[] = {
  0x1c, 0x00, 0x00, 0x00, 0x54, 0x46, 0x4c, 0x33, 0x14, 0x00, 0x20, 0x00, 0x1c, 0x00, 0x18, 0x00,
  0x14, 0x00, 0x10, 0x00, 0x0c, 0x00, 0x00, 0x00, 0x08, 0x00, 0x04, 0x00, 0x14, 0x00, 0x00, 0x00,
  0x1c, 0x00, 0x00, 0x00, 0x8c, 0x00, 0x00, 0x00, 0xe4, 0x00, 0x00, 0x00, 0x90, 0x0e, 0x00, 0x00,
  0xa0, 0x0e, 0x00, 0x00, 0x88, 0x14, 0x00, 0x00, 0x03, 0x00, 0x00, 0x00, 0x01, 0x00, 0x00, 0x00,
  0x04, 0x00, 0x00, 0x00, 0x22, 0xf1, 0xff, 0xff, 0x0c, 0x00, 0x00, 0x00, 0x1c, 0x00, 0x00, 0x00,
  0x3c, 0x00, 0x00, 0x00, 0x0f, 0x00, 0x00, 0x00, 0x73, 0x65, 0x72, 0x76, 0x69, 0x6e, 0x67, 0x5f,
  0x64, 0x65, 0x66, 0x61, 0x75, 0x6c, 0x74, 0x00, 0x01, 0x00, 0x00, 0x00, 0x04, 0x00, 0x00, 0x00,
  0x90, 0xff, 0xff, 0xff, 0x0a, 0x00, 0x00, 0x00, 0x04, 0x00, 0x00, 0x00, 0x08, 0x00, 0x00, 0x00,
  0x6f, 0x75, 0x74, 0x70, 0x75, 0x74, 0x5f, 0x30, 0x00, 0x00, 0x00, 0x00, 0x01, 0x00, 0x00, 0x00,
  0x04, 0x00, 0x00, 0x00, 0x72, 0xf2, 0xff, 0xff, 0x04, 0x00, 0x00, 0x00, 0x0c, 0x00, 0x00, 0x00,
  0x6b, 0x65, 0x72, 0x61, 0x73, 0x5f, 0x74, 0x65, 0x6e, 0x73, 0x6f, 0x72, 0x00, 0x00, 0x00, 0x00,
  0x02, 0x00, 0x00, 0x00, 0x34, 0x00, 0x00, 0x00, 0x04, 0x00, 0x00, 0x00, 0xdc, 0xff, 0xff, 0xff,
  0x0d, 0x00, 0x00, 0x00, 0x04, 0x00, 0x00, 0x00, 0x13, 0x00, 0x00, 0x00, 0x43, 0x4f, 0x4e, 0x56,
  0x45, 0x52, 0x53, 0x49, 0x4f, 0x4e, 0x5f, 0x4d, 0x45, 0x54, 0x41, 0x44, 0x41, 0x54, 0x41, 0x00,
  0x08, 0x00, 0x0c, 0x00, 0x08, 0x00, 0x04, 0x00, 0x08, 0x00, 0x00, 0x00, 0x0c, 0x00, 0x00, 0x00,
  0x04, 0x00, 0x00, 0x00, 0x13, 0x00, 0x00, 0x00, 0x6d, 0x69, 0x6e, 0x5f, 0x72, 0x75, 0x6e, 0x74,
  0x69, 0x6d, 0x65, 0x5f, 0x76, 0x65, 0x72, 0x73, 0x69, 0x6f, 0x6e, 0x00, 0x0e, 0x00, 0x00, 0x00,
  0xa8, 0x0d, 0x00, 0x00, 0xa0, 0x0d, 0x00, 0x00, 0x10, 0x0d, 0x00, 0x00, 0xf4, 0x0c, 0x00, 0x00,
  0x64, 0x0c, 0x00, 0x00, 0x54, 0x04, 0x00, 0x00, 0x04, 0x01, 0x00, 0x00, 0xb4, 0x00, 0x00, 0x00,
  0xac, 0x00, 0x00, 0x00, 0xa4, 0x00, 0x00, 0x00, 0x9c, 0x00, 0x00, 0x00, 0x94, 0x00, 0x00, 0x00,
  0x74, 0x00, 0x00, 0x00, 0x04, 0x00, 0x00, 0x00, 0x26, 0xf3, 0xff, 0xff, 0x04, 0x00, 0x00, 0x00,
  0x60, 0x00, 0x00, 0x00, 0x10, 0x00, 0x00, 0x00, 0x00, 0x00, 0x00, 0x00, 0x08, 0x00, 0x0e, 0x00,
  0x08, 0x00, 0x04, 0x00, 0x08, 0x00, 0x00, 0x00, 0x10, 0x00, 0x00, 0x00, 0x24, 0x00, 0x00, 0x00,
  0x00, 0x00, 0x06, 0x00, 0x08, 0x00, 0x04, 0x00, 0x06, 0x00, 0x00, 0x00, 0x04, 0x00, 0x00, 0x00,
  0x00, 0x00, 0x00, 0x00, 0x0c, 0x00, 0x18, 0x00, 0x14, 0x00, 0x10, 0x00, 0x0c, 0x00, 0x04, 0x00,
  0x0c, 0x00, 0x00, 0x00, 0x04, 0xc0, 0xbe, 0x92, 0x7e, 0x5c, 0xcc, 0x1b, 0x02, 0x00, 0x00, 0x00,
  0x02, 0x00, 0x00, 0x00, 0x04, 0x00, 0x00, 0x00, 0x06, 0x00, 0x00, 0x00, 0x32, 0x2e, 0x32, 0x31,
  0x2e, 0x30, 0x00, 0x00, 0x92, 0xf3, 0xff, 0xff, 0x04, 0x00, 0x00, 0x00, 0x10, 0x00, 0x00, 0x00,
  0x31, 0x2e, 0x31, 0x34, 0x2e, 0x30, 0x00, 0x00, 0x00, 0x00, 0x00, 0x00, 0x00, 0x00, 0x00, 0x00,
  0x4c, 0xed, 0xff, 0xff, 0x50, 0xed, 0xff, 0xff, 0x54, 0xed, 0xff, 0xff, 0x58, 0xed, 0xff, 0xff,
  0xbe, 0xf3, 0xff, 0xff, 0x04, 0x00, 0x00, 0x00, 0x40, 0x00, 0x00, 0x00, 0xd7, 0xce, 0x01, 0x3f,
  0x31, 0xb9, 0x11, 0x39, 0x67, 0xe8, 0x00, 0x3e, 0x7e, 0x2f, 0xa4, 0xbd, 0x88, 0xeb, 0x49, 0x3e,
  0x4d, 0xbb, 0x4f, 0xbe, 0x77, 0xcb, 0x30, 0x3d, 0x8a, 0x68, 0xa8, 0x3d, 0x2c, 0x4b, 0x85, 0xbe,
  0x9a, 0xba, 0x84, 0x3e, 0x6a, 0x0a, 0x44, 0x3c, 0x94, 0x4c, 0xa3, 0x3e, 0x96, 0x27, 0x09, 0x3e,
  0xf7, 0x05, 0x7b, 0xbd, 0x3e, 0x83, 0x86, 0xbd, 0x92, 0x80, 0xc2, 0xbc, 0x0a, 0xf4, 0xff, 0xff,
  0x04, 0x00, 0x00, 0x00, 0x40, 0x03, 0x00, 0x00, 0x9f, 0x10, 0x27, 0xbe, 0x2d, 0xc5, 0x6b, 0xbe,
  0x07, 0x04, 0xd9, 0x3e, 0x7d, 0x22, 0x93, 0x3e, 0xe8, 0x91, 0x60, 0x3e, 0x8e, 0x47, 0x06, 0xbe,
  0x63, 0xed, 0xaf, 0xbe, 0x3d, 0x56, 0x04, 0x3e, 0x5f, 0x43, 0x99, 0x3e, 0x81, 0xbd, 0x86, 0x3e,
  0x9f, 0x99, 0xa4, 0x3e, 0x5a, 0xc5, 0x04, 0x3e, 0x03, 0x04, 0x88, 0xbe, 0x2c, 0xdc, 0x0c, 0xbf,
  0xa3, 0xc6, 0x38, 0xbe, 0xf9, 0xa6, 0xa4, 0xbe, 0x19, 0xce, 0xc0, 0xbc, 0x6e, 0x76, 0x0e, 0x3f,
  0x1d, 0xcd, 0xab, 0x3e, 0x17, 0x43, 0x0f, 0x3f, 0x3b, 0x9f, 0x0d, 0xbf, 0x53, 0xc8, 0x0b, 0x3f,
  0x15, 0xbd, 0xce, 0x3e, 0xef, 0xb1, 0x0b, 0x3f, 0xcd, 0x0c, 0xc3, 0xbe, 0x3c, 0x07, 0xad, 0x3e,
  0xcd, 0x3a, 0x08, 0x3e, 0xd9, 0xf3, 0xc1, 0xbe, 0x02, 0x35, 0xea, 0xbe, 0xa2, 0xd5, 0x31, 0x3f,
  0xd4, 0x85, 0xb5, 0xbe, 0x0a, 0xca, 0x52, 0xbe, 0x6a, 0x50, 0xf4, 0xbd, 0x40, 0x3c, 0xe2, 0x3e,
  0x50, 0xa6, 0x93, 0x3e, 0x54, 0x43, 0x32, 0x3f, 0xb6, 0x11, 0x6b, 0xbe, 0xf3, 0xf6, 0x0b, 0xbe,
  0x66, 0x37, 0x89, 0x3e, 0xe3, 0xed, 0xed, 0x3c, 0x8e, 0x1f, 0xc0, 0x3c, 0x9b, 0xda, 0x32, 0x3c,
  0xc7, 0x27, 0xc9, 0x3e, 0x95, 0x5f, 0x0d, 0x3f, 0x46, 0xae, 0xe4, 0x3e, 0x48, 0xe8, 0xea, 0x3e,
  0x91, 0xbf, 0xb4, 0x3e, 0x9d, 0x7e, 0x6c, 0x3e, 0xee, 0x4e, 0xaf, 0x3e, 0xbe, 0x0a, 0x18, 0xbf,
  0xba, 0x06, 0xbc, 0xbd, 0x86, 0x6f, 0x11, 0x3f, 0x69, 0x66, 0xd5, 0x3e, 0x9c, 0x71, 0xd1, 0x3e,
  0x3d, 0x32, 0x9f, 0x3e, 0xdd, 0xda, 0x1b, 0xbe, 0x38, 0xab, 0xff, 0xbe, 0xcf, 0xa3, 0x09, 0xbf,
  0xed, 0xda, 0xbf, 0xbd, 0x5b, 0x2b, 0xb8, 0x3d, 0xd1, 0xc8, 0x8a, 0x3e, 0x13, 0x0c, 0xf5, 0x3e,
  0x30, 0xac, 0xca, 0x3e, 0x35, 0x13, 0x2e, 0x3e, 0x85, 0x05, 0x4b, 0x3d, 0x44, 0x14, 0xd7, 0xbe,
  0xd6, 0x54, 0x00, 0xbd, 0x22, 0x3b, 0x51, 0x3e, 0xfb, 0x95, 0x26, 0x3e, 0x3e, 0xd0, 0x65, 0x3d,
  0x2d, 0x52, 0xb1, 0xbe, 0x91, 0xb3, 0x2c, 0xbe, 0xa5, 0x99, 0x99, 0xbe, 0x08, 0x04, 0x01, 0xbc,
  0x44, 0xb4, 0x07, 0xbf, 0xe1, 0xb4, 0xb4, 0x3d, 0x6e, 0xa3, 0x66, 0xbe, 0xf4, 0x42, 0x3c, 0xbe,
  0x71, 0x9b, 0x28, 0x3f, 0x79, 0xe6, 0x86, 0x3e, 0x93, 0x0d, 0x03, 0xbf, 0x2c, 0x92, 0x17, 0xbf,
  0x4e, 0xe6, 0x0d, 0xbf, 0x86, 0x2e, 0x26, 0x3d, 0x69, 0xfd, 0xe2, 0xbe, 0xa9, 0x90, 0xe4, 0xbe,
  0x17, 0xce, 0xb0, 0x3e, 0x10, 0x1a, 0xb0, 0xbe, 0x29, 0x19, 0x33, 0xbe, 0x02, 0xcd, 0xe0, 0x3c,
  0xfd, 0x56, 0x86, 0xbe, 0x9c, 0x11, 0x00, 0xbe, 0x9c, 0x86, 0xe7, 0xbe, 0x87, 0xd3, 0x20, 0x3f,
  0x91, 0x97, 0xd6, 0x3e, 0x50, 0x81, 0x5b, 0xbe, 0x04, 0xdd, 0x1a, 0x3f, 0x71, 0x60, 0x6a, 0x3e,
  0xb9, 0x85, 0x2e, 0x3e, 0xb2, 0x9c, 0x36, 0x3e, 0x2b, 0xe9, 0x20, 0xbe, 0xa8, 0x36, 0x95, 0x3e,
  0x69, 0xdc, 0x0c, 0x3e, 0xd3, 0x91, 0x0b, 0xbe, 0x56, 0xa7, 0xc0, 0xbd, 0xd4, 0x99, 0x0f, 0xbf,
  0x7f, 0xa5, 0x73, 0x3e, 0x8c, 0xdf, 0xca, 0x3c, 0x21, 0x3c, 0x6d, 0x3e, 0xcd, 0xb0, 0x28, 0xbf,
  0xe3, 0xfc, 0x88, 0xbe, 0xe6, 0xbc, 0x78, 0xbe, 0x79, 0x5e, 0x21, 0xbe, 0xcc, 0x39, 0xdd, 0xbe,
  0x65, 0x88, 0x63, 0xbe, 0xa4, 0x97, 0x36, 0x3e, 0x45, 0x4c, 0x14, 0xbe, 0xe5, 0x3c, 0xa6, 0xbe,
  0x56, 0xd7, 0x8e, 0x3e, 0x74, 0xc1, 0x87, 0xbe, 0x30, 0x4f, 0xbc, 0xbe, 0x7f, 0x0d, 0xcf, 0xbe,
  0xd2, 0x9a, 0x24, 0x3e, 0x62, 0xb9, 0x89, 0xbe, 0x84, 0xa2, 0x62, 0xbe, 0x0c, 0x5f, 0x91, 0xbc,
  0x81, 0xb2, 0x19, 0x3e, 0x67, 0xd9, 0xd5, 0x3e, 0x7c, 0x82, 0x9d, 0x3e, 0x45, 0x40, 0xbe, 0x3e,
  0xa5, 0xcd, 0x79, 0xbf, 0xb4, 0xe1, 0x28, 0x3e, 0x96, 0x0a, 0xf9, 0x3c, 0x60, 0xf6, 0x97, 0x3e,
  0xef, 0xe6, 0xfe, 0xbd, 0x5e, 0xeb, 0xf5, 0xbd, 0x17, 0x5e, 0x04, 0x3f, 0x5c, 0x72, 0x72, 0xbd,
  0x74, 0x9e, 0x0f, 0x3f, 0xbf, 0xbc, 0x8f, 0xbe, 0x7a, 0xe7, 0x4e, 0x3f, 0xf5, 0xd9, 0xb6, 0x3e,
  0xde, 0x10, 0x71, 0xbb, 0xbb, 0xb6, 0xe0, 0x3d, 0xdc, 0xf8, 0xe0, 0x3e, 0xf2, 0xba, 0xc3, 0xbe,
  0xe5, 0x99, 0xb7, 0xbe, 0xd1, 0xe2, 0x87, 0x3e, 0x7a, 0x40, 0x40, 0xbe, 0x50, 0x4b, 0x22, 0xbe,
  0x9c, 0x88, 0xaf, 0x3e, 0x5d, 0x6d, 0xb7, 0xbe, 0xbd, 0x6a, 0x5b, 0xbd, 0xcd, 0x73, 0xe9, 0x3e,
  0x6b, 0xf6, 0xa2, 0xbc, 0xde, 0xfb, 0xcf, 0x3c, 0xad, 0x6e, 0x25, 0xbf, 0x79, 0xc9, 0x0f, 0x3d,
  0x0b, 0xd3, 0x89, 0xbc, 0x8e, 0x97, 0x02, 0xbf, 0xbf, 0xa4, 0x6c, 0xbe, 0x67, 0xfa, 0x58, 0x3d,
  0xcd, 0x6b, 0xcf, 0xbd, 0x8a, 0x00, 0x2e, 0xbd, 0x2b, 0x48, 0x84, 0xbd, 0xba, 0x08, 0x6d, 0x3e,
  0x56, 0x50, 0x37, 0x3e, 0xf0, 0x90, 0x91, 0xbe, 0x6b, 0xf7, 0x37, 0xbf, 0xe4, 0xcf, 0x3e, 0x3f,
  0x66, 0x49, 0x56, 0x3e, 0x50, 0x67, 0x0e, 0x3e, 0xfe, 0x3f, 0x07, 0xbe, 0x8b, 0x97, 0xbd, 0xbd,
  0x19, 0xd0, 0x06, 0x3e, 0xb8, 0x2a, 0xd0, 0x3e, 0x77, 0xc9, 0xba, 0x3e, 0x2e, 0x28, 0xae, 0x3e,
  0x0e, 0xc2, 0x08, 0xbe, 0x0e, 0x86, 0xc2, 0xbd, 0x62, 0xe7, 0x3d, 0xbe, 0x5b, 0xa2, 0x8f, 0x3e,
  0x9f, 0x22, 0x0d, 0xbf, 0xa2, 0x5b, 0xea, 0x3e, 0x1c, 0xde, 0x22, 0x3f, 0xac, 0xf6, 0xda, 0x3e,
  0xff, 0xc4, 0x1a, 0x3e, 0x83, 0xfa, 0x10, 0x3e, 0x68, 0x83, 0x66, 0x3e, 0x1f, 0xdd, 0x3c, 0xbf,
  0x67, 0x36, 0x09, 0xbf, 0x03, 0x09, 0x93, 0xbe, 0x44, 0x1d, 0xf2, 0x3e, 0x90, 0xaf, 0x9b, 0x3e,
  0xf5, 0x08, 0xde, 0x3e, 0xba, 0xa7, 0xac, 0xbd, 0xe6, 0x5c, 0x7f, 0xbf, 0x0b, 0x2a, 0x80, 0x3e,
  0x1c, 0x58, 0x39, 0xbe, 0xf5, 0x6f, 0xae, 0x3e, 0xc9, 0xb2, 0x65, 0xbd, 0x8a, 0xfb, 0x82, 0x3e,
  0xbb, 0x37, 0x72, 0x3e, 0xc7, 0xd0, 0x93, 0xbd, 0x98, 0x84, 0xd8, 0xbe, 0x1e, 0x18, 0x4c, 0xbd,
  0x18, 0x25, 0x3a, 0x3e, 0x80, 0xaf, 0xb4, 0x3e, 0x56, 0xf7, 0xff, 0xff, 0x04, 0x00, 0x00, 0x00,
  0x00, 0x08, 0x00, 0x00, 0x47, 0xe6, 0x23, 0xbe, 0x3b, 0x2f, 0x26, 0x3d, 0x84, 0xbd, 0xc2, 0x3d,
  0x23, 0x1d, 0x18, 0xbd, 0x60, 0x39, 0x88, 0x3d, 0x9e, 0xa7, 0x50, 0xbd, 0xa7, 0x2c, 0x81, 0x3e,
  0x9d, 0x41, 0x90, 0x3e, 0x9c, 0xfb, 0x93, 0xbe, 0xb6, 0x2f, 0x0a, 0x3f, 0xac, 0x1c, 0x8c, 0xbe,
  0x70, 0xdc, 0xe1, 0x3d, 0xb5, 0xd1, 0x15, 0x3c, 0x70, 0x75, 0x84, 0xbe, 0x69, 0x50, 0x91, 0x3e,
  0x71, 0xc8, 0x32, 0xbf, 0xdc, 0x95, 0xdb, 0xbe, 0xa5, 0xb4, 0xd9, 0xbe, 0x2c, 0x19, 0x82, 0xbe,
  0x3d, 0x16, 0x97, 0x3e, 0x36, 0xb5, 0x88, 0x3e, 0x09, 0x06, 0x1d, 0x3e, 0x2e, 0xbc, 0x57, 0x3e,
  0x29, 0x71, 0xfd, 0xbd, 0x42, 0x92, 0x28, 0xbe, 0x1a, 0x07, 0x89, 0xbe, 0x72, 0xad, 0xa7, 0xbe,
  0xd4, 0x1e, 0x83, 0x3e, 0x80, 0x74, 0x14, 0xbe, 0x99, 0xd7, 0x0c, 0x3f, 0xbb, 0x80, 0xe3, 0x3e,
  0xbf, 0xc5, 0x2f, 0xbe, 0x50, 0xa0, 0xca, 0x3e, 0x21, 0x72, 0xb3, 0x3d, 0x87, 0xfb, 0x83, 0x3e,
  0x0d, 0x43, 0xe5, 0x3c, 0x19, 0x96, 0xfb, 0xbe, 0xc7, 0x15, 0x29, 0x3a, 0xd0, 0x60, 0x90, 0x3e,
  0x1c, 0x9c, 0x28, 0x3e, 0x73, 0x1b, 0x9c, 0x3c, 0xa4, 0x8f, 0x66, 0xbb, 0x1c, 0xcb, 0x32, 0xbd,
  0x60, 0x8b, 0xc8, 0x3d, 0x0b, 0x11, 0x9c, 0x3e, 0x66, 0xac, 0xef, 0xbd, 0xde, 0x6a, 0x7a, 0x3e,
  0xb9, 0xde, 0xd8, 0xbd, 0xd5, 0x43, 0xa5, 0xbd, 0x8c, 0x60, 0x34, 0xbe, 0x18, 0xc5, 0x1e, 0xbf,
  0x67, 0x90, 0xd1, 0x3e, 0xa8, 0x31, 0x13, 0x3d, 0xfc, 0xbd, 0x1b, 0xbe, 0xb9, 0x90, 0x7a, 0x3e,
  0xd6, 0xfc, 0x82, 0x3e, 0x11, 0xe5, 0x18, 0xbe, 0xc4, 0x9a, 0x24, 0xbe, 0x5a, 0x32, 0x4c, 0xbf,
  0x3d, 0xa0, 0x6c, 0x3e, 0x18, 0x70, 0x03, 0x3b, 0xab, 0x58, 0x27, 0x3d, 0x8f, 0x5f, 0xac, 0x3e,
  0x9c, 0x0a, 0x2a, 0xbf, 0xb0, 0xf7, 0x30, 0xbf, 0x78, 0x00, 0xb5, 0xbe, 0x09, 0x5f, 0x94, 0x3e,
  0x31, 0xea, 0xcd, 0x3e, 0x9f, 0x40, 0xb8, 0x3e, 0x7c, 0xa1, 0xa3, 0xbd, 0xde, 0xfc, 0xb1, 0xbd,
  0x86, 0x90, 0xde, 0xbe, 0x2a, 0x84, 0x30, 0xbf, 0xfa, 0x54, 0xdb, 0x3e, 0x96, 0xdf, 0x9d, 0xbd,
  0xd2, 0x38, 0x7d, 0x3d, 0x6a, 0x25, 0xe8, 0x3e, 0x51, 0x0e, 0x2d, 0xbe, 0x19, 0x2d, 0xb5, 0xbd,
  0x21, 0x3f, 0x84, 0x3e, 0x0e, 0xe2, 0x81, 0xbe, 0x73, 0x01, 0xfc, 0x3e, 0x85, 0x56, 0xbd, 0x3e,
  0x06, 0xa8, 0xc4, 0xbc, 0x84, 0x5f, 0x65, 0xbf, 0x39, 0x57, 0xe7, 0x3d, 0xf9, 0x52, 0xbd, 0x3e,
  0xe3, 0x0b, 0x90, 0x3e, 0x50, 0xf6, 0x7e, 0x3e, 0x66, 0x26, 0x6f, 0xbe, 0xd0, 0xf5, 0x34, 0xbd,
  0x12, 0x71, 0x88, 0xbe, 0x00, 0xe5, 0x48, 0xbd, 0xc0, 0x96, 0x28, 0x3e, 0x01, 0x7f, 0x08, 0x3e,
  0x9d, 0xac, 0x7c, 0x3e, 0x14, 0xe9, 0x97, 0xbe, 0x02, 0x96, 0x4a, 0x3e, 0xcd, 0x34, 0x88, 0x3e,
  0x21, 0x89, 0x17, 0x3e, 0x21, 0xc1, 0x43, 0xbf, 0x71, 0xa3, 0xc8, 0x3e, 0xc5, 0xe9, 0xe6, 0x3d,
  0xae, 0x1f, 0xb3, 0x3e, 0x6d, 0x93, 0xa8, 0x3e, 0x33, 0x7d, 0xd3, 0xbe, 0xde, 0x36, 0x75, 0x3e,
  0x4a, 0x60, 0x6f, 0x3e, 0xb6, 0xee, 0x8c, 0x3e, 0xab, 0xae, 0xc5, 0xbe, 0x5c, 0x9e, 0xec, 0x3e,
  0x1a, 0xff, 0x0e, 0x3f, 0x59, 0x6f, 0x58, 0xbe, 0xc0, 0xd0, 0x80, 0x3e, 0x6d, 0x77, 0x7a, 0x3e,
  0x7c, 0x58, 0x89, 0x3e, 0x61, 0xee, 0x8a, 0x3e, 0x40, 0x90, 0x78, 0x3e, 0xbe, 0x51, 0x62, 0xbe,
  0xe2, 0xee, 0x0a, 0xbe, 0xa6, 0x3e, 0xe7, 0xbb, 0x4b, 0x7c, 0xb3, 0x3e, 0xa5, 0x5b, 0xab, 0xbe,
  0x39, 0xf8, 0x20, 0x3f, 0xd1, 0x4c, 0x94, 0x3e, 0xf4, 0x0f, 0x91, 0x3e, 0xa6, 0xe7, 0xd3, 0xbd,
  0x56, 0x4e, 0x01, 0xbe, 0x07, 0x1e, 0x02, 0x3f, 0x58, 0x46, 0x18, 0x3c, 0x80, 0x3b, 0x4d, 0x3d,
  0x4e, 0x51, 0x61, 0xbd, 0x24, 0xcc, 0x14, 0xbf, 0xad, 0x9b, 0xc6, 0x3e, 0x7c, 0xe6, 0xac, 0x3e,
  0x68, 0x29, 0x56, 0xbe, 0x36, 0xee, 0x51, 0x3e, 0x47, 0xb5, 0xcd, 0xbe, 0xdc, 0xa5, 0xaf, 0x3e,
  0x66, 0xbe, 0x0b, 0xbe, 0x7a, 0x8e, 0x8f, 0x3e, 0x4e, 0xeb, 0xaa, 0xbe, 0xe9, 0xda, 0x2b, 0xbf,
  0x34, 0x39, 0xde, 0x3d, 0xa2, 0x73, 0x60, 0xbe, 0xc9, 0x36, 0x4f, 0x3e, 0xaf, 0xff, 0xde, 0xbd,
  0x64, 0x7b, 0x15, 0x3e, 0xe0, 0xba, 0x74, 0x38, 0x66, 0xe3, 0x97, 0x3d, 0xea, 0x50, 0xa9, 0x3c,
  0x31, 0xf2, 0x65, 0x3e, 0x44, 0xf4, 0x17, 0xbe, 0xb0, 0xb4, 0xcb, 0x3e, 0xcc, 0xeb, 0x6f, 0x3d,
  0xc4, 0xc5, 0xe4, 0x3e, 0xca, 0x28, 0x12, 0xbd, 0x5d, 0x93, 0xb2, 0x3e, 0xb4, 0x6b, 0x7c, 0xbe,
  0x63, 0xac, 0x29, 0xbf, 0x64, 0x5a, 0xbf, 0xbd, 0x22, 0xd3, 0x5a, 0xbe, 0x2a, 0xb6, 0x53, 0x3e,
  0x4f, 0x53, 0x9c, 0x3e, 0xec, 0x16, 0x7b, 0x3e, 0x54, 0x4a, 0x1d, 0x3e, 0x99, 0x20, 0x38, 0x3e,
  0xc1, 0xa7, 0x71, 0xbd, 0x41, 0x80, 0x19, 0xbd, 0x9e, 0x19, 0x9a, 0x3e, 0x8d, 0xde, 0x26, 0x3e,
  0xe4, 0x5f, 0x94, 0x3e, 0xb2, 0xf5, 0x95, 0xbe, 0xc7, 0xfd, 0x09, 0x3e, 0xea, 0x0c, 0x8e, 0x3e,
  0x46, 0x6d, 0xc8, 0x3d, 0x4c, 0x71, 0x45, 0xbe, 0x3b, 0x59, 0xea, 0x3e, 0xbd, 0x3c, 0x86, 0xbc,
  0x62, 0xd2, 0xc8, 0x3d, 0xba, 0x9a, 0x88, 0x3c, 0x7e, 0xef, 0x66, 0x3d, 0x34, 0x1f, 0x92, 0x3c,
  0x69, 0xcc, 0x72, 0xbe, 0xc1, 0xe1, 0x1d, 0xbf, 0x81, 0x7a, 0xd6, 0x3e, 0x32, 0x29, 0xd4, 0x3e,
  0x37, 0x66, 0x99, 0x3e, 0x1f, 0x37, 0x8c, 0x3e, 0xd9, 0xc4, 0xd5, 0x3c, 0xaa, 0x40, 0xc8, 0xbe,
  0x9d, 0x5b, 0x19, 0xbf, 0x2e, 0x2e, 0xc1, 0xbd, 0x97, 0x3c, 0x8c, 0xbe, 0x28, 0xdf, 0x9d, 0xbe,
  0x13, 0x21, 0x2e, 0xbd, 0x52, 0x42, 0x00, 0x3d, 0x9b, 0xd2, 0x71, 0xbe, 0x62, 0x86, 0x93, 0x3e,
  0x7d, 0xfb, 0xfc, 0xbd, 0x40, 0xe8, 0x44, 0xbd, 0x75, 0x00, 0x16, 0x3f, 0x3f, 0x85, 0xb5, 0x3d,
  0x3e, 0x0b, 0xc1, 0x3e, 0x25, 0xad, 0x12, 0xbe, 0xe0, 0x79, 0x05, 0xbe, 0x34, 0xe8, 0x86, 0x3e,
  0xb1, 0xba, 0x09, 0x3e, 0xa4, 0xd1, 0x7b, 0xbd, 0xa9, 0x85, 0xee, 0xbe, 0xac, 0x44, 0x97, 0x3e,
  0x10, 0xb2, 0xb0, 0xbe, 0xd8, 0x73, 0x04, 0xbe, 0xb2, 0x1b, 0x4e, 0x3e, 0x31, 0x8b, 0xe8, 0xbe,
  0x64, 0xae, 0x0d, 0x3e, 0x56, 0xec, 0x6c, 0x3e, 0x9c, 0xf3, 0xf2, 0x3e, 0xc2, 0x51, 0x10, 0x3e,
  0xd6, 0xb3, 0xdc, 0x3d, 0xe6, 0xea, 0x89, 0x3e, 0xdc, 0x5f, 0x21, 0xbd, 0x52, 0x15, 0x90, 0x3e,
  0x75, 0x94, 0x0e, 0x3e, 0x31, 0x7a, 0x0a, 0x3f, 0x1a, 0x55, 0xd5, 0x3e, 0x89, 0x13, 0x1f, 0x3d,
  0x92, 0x00, 0x1a, 0xbe, 0x5c, 0x1d, 0x64, 0x3e, 0x23, 0xa2, 0x94, 0x3e, 0xba, 0x04, 0x66, 0x3e,
  0x67, 0x5b, 0xc9, 0x3e, 0x6d, 0xa0, 0xb7, 0x3e, 0x27, 0xa4, 0xf0, 0xbe, 0x94, 0xa9, 0xf4, 0x3d,
  0x7b, 0xa1, 0xa8, 0xbd, 0x1f, 0x52, 0x87, 0xbc, 0xd3, 0x70, 0x2d, 0xbe, 0x45, 0x68, 0x44, 0xbe,
  0x35, 0xb1, 0xd6, 0x3e, 0xee, 0x9c, 0x95, 0xbc, 0xcd, 0x5c, 0x8f, 0x3d, 0x8f, 0x4e, 0x1b, 0xbf,
  0xe1, 0xd9, 0x0c, 0xbd, 0xe7, 0x5b, 0x2e, 0x3f, 0xc0, 0x6e, 0x37, 0x3e, 0xbe, 0x84, 0x99, 0xbe,
  0x77, 0x2c, 0x52, 0xbd, 0x92, 0x80, 0x80, 0x3e, 0xe7, 0x22, 0xb1, 0xbe, 0xc3, 0x52, 0x2a, 0x3e,
  0x58, 0x30, 0xb1, 0xbe, 0xba, 0xfe, 0xb4, 0x3e, 0x07, 0x31, 0x57, 0x3e, 0xb3, 0x17, 0xdf, 0xbe,
  0xe0, 0x7b, 0xf1, 0xbe, 0x61, 0xa6, 0x19, 0xbf, 0x64, 0x8a, 0x3d, 0xbd, 0xec, 0x11, 0xb5, 0x3e,
  0x05, 0xfd, 0x6b, 0x3e, 0xc1, 0x12, 0xe4, 0x3e, 0xb3, 0x83, 0x36, 0xbe, 0x63, 0x99, 0x8b, 0xbe,
  0x95, 0x51, 0xe0, 0xbe, 0x28, 0x0f, 0x50, 0xbf, 0x51, 0x3a, 0x12, 0xbc, 0xf9, 0x8f, 0x67, 0xbe,
  0xa0, 0xdf, 0x16, 0xbf, 0x3d, 0xc1, 0x9f, 0x3e, 0x79, 0x3b, 0x6e, 0xbe, 0x94, 0xbe, 0xf9, 0x3d,
  0x50, 0x23, 0x84, 0x3e, 0xe0, 0x08, 0x89, 0xbe, 0xa7, 0xf9, 0x3c, 0x3c, 0xb3, 0xab, 0x2d, 0xbc,
  0x03, 0x77, 0xab, 0x3e, 0x92, 0x7e, 0xd7, 0x3e, 0xac, 0x92, 0x46, 0xbe, 0xeb, 0x89, 0x53, 0x3e,
  0x4a, 0x21, 0x38, 0xbe, 0xad, 0x55, 0x08, 0xbe, 0xc0, 0x0c, 0xfa, 0x3e, 0x43, 0x5e, 0xb8, 0x3e,
  0xf5, 0x55, 0x8e, 0x3e, 0x45, 0x69, 0xd1, 0x3c, 0x6f, 0x41, 0x3d, 0x3e, 0xc4, 0x84, 0xd2, 0xbd,
  0x73, 0x01, 0x0f, 0xbf, 0xcb, 0x69, 0x4c, 0xbc, 0xec, 0xf8, 0x3f, 0xbf, 0x11, 0x81, 0xfd, 0x3c,
  0xad, 0x10, 0x1c, 0x3e, 0xdd, 0xf9, 0x2e, 0xbe, 0x7f, 0x8b, 0xed, 0xbe, 0xf4, 0xfa, 0x9e, 0xbd,
  0xaa, 0x5f, 0xb7, 0x3e, 0x1f, 0x26, 0x10, 0xbf, 0x02, 0xb0, 0x9b, 0xbf, 0x88, 0xab, 0xea, 0x3c,
  0x65, 0xcc, 0x66, 0xbe, 0x0b, 0xe2, 0xe4, 0xbe, 0xf7, 0x16, 0x0b, 0x3f, 0xca, 0x82, 0x73, 0xbe,
  0x57, 0xb4, 0x78, 0x3d, 0x8f, 0x17, 0x64, 0x3e, 0x3c, 0xac, 0x36, 0xbe, 0x0f, 0xdb, 0xc6, 0x3d,
  0x88, 0x74, 0x33, 0xbe, 0xc2, 0x81, 0xf0, 0x3e, 0x03, 0x32, 0x77, 0xbe, 0xfb, 0x61, 0x3c, 0xbf,
  0x71, 0x82, 0x87, 0x3d, 0xdd, 0x2f, 0x6f, 0xbe, 0xeb, 0x99, 0xe9, 0xbe, 0x78, 0x05, 0x8b, 0xbd,
  0xf0, 0xda, 0x8b, 0x3e, 0x46, 0x01, 0x0a, 0x3e, 0xb1, 0xfe, 0x24, 0x3e, 0xd8, 0x42, 0x16, 0x3e,
  0x41, 0x8f, 0xb8, 0x3e, 0x34, 0x4a, 0x9f, 0xbe, 0xe5, 0xe2, 0x68, 0xbf, 0x68, 0xf5, 0xa3, 0xbe,
  0x64, 0x89, 0x4a, 0x3e, 0x6b, 0x06, 0x4d, 0x3e, 0x12, 0x9c, 0x2a, 0x3e, 0x9a, 0x7d, 0x42, 0x3e,
  0x2f, 0x1b, 0xd1, 0x3e, 0x31, 0x25, 0x56, 0x3d, 0x87, 0x4b, 0xdb, 0xbe, 0x0d, 0xe6, 0xe1, 0xbe,
  0x32, 0x40, 0x62, 0x3e, 0x09, 0x25, 0x8b, 0xbe, 0x79, 0xbe, 0x39, 0x3f, 0xa4, 0x8b, 0x19, 0x3f,
  0x00, 0xea, 0xb0, 0xbe, 0xe0, 0x70, 0xaa, 0x3d, 0xe0, 0xf2, 0x80, 0x3e, 0xba, 0x28, 0xf9, 0xbe,
  0x64, 0xa7, 0x0c, 0x3e, 0x02, 0xef, 0x23, 0xbe, 0x35, 0x55, 0x33, 0xbe, 0xdb, 0x71, 0xa6, 0x3e,
  0xf2, 0x50, 0x89, 0x3d, 0x27, 0x69, 0x82, 0xbe, 0xb9, 0x5f, 0xf5, 0x3e, 0x14, 0xa0, 0x81, 0x3e,
  0x3f, 0x2a, 0x00, 0x3f, 0xaa, 0x0b, 0xae, 0xbe, 0x9c, 0x2e, 0x79, 0x3e, 0x7d, 0xe6, 0xeb, 0xbe,
  0xea, 0x3c, 0x94, 0xbe, 0x7e, 0x21, 0x33, 0xbe, 0xc8, 0x68, 0x13, 0x3f, 0x68, 0x38, 0x0a, 0xbf,
  0xca, 0x55, 0xe2, 0xbe, 0x94, 0x00, 0x05, 0x3f, 0x0b, 0x9d, 0x1d, 0xbf, 0x94, 0x84, 0x0b, 0xbf,
  0x1c, 0xfe, 0x5e, 0xbe, 0x59, 0x5c, 0xfe, 0xbd, 0xd9, 0x4f, 0x14, 0xbf, 0x96, 0x53, 0xfb, 0xb8,
  0xc5, 0x7f, 0xbc, 0xbe, 0x95, 0xc4, 0x44, 0xbe, 0x5d, 0xaa, 0x7a, 0x3e, 0x47, 0x34, 0xa2, 0x3e,
  0xc9, 0xb7, 0x25, 0x3d, 0x6a, 0x6f, 0xb3, 0xbe, 0x58, 0xc5, 0x83, 0x3e, 0x3f, 0xa4, 0x83, 0xbd,
  0xe3, 0x5b, 0xcd, 0x3e, 0x29, 0xb4, 0xb0, 0x3e, 0xf8, 0x2e, 0xff, 0xbd, 0x6e, 0x10, 0xba, 0x3e,
  0xae, 0x4c, 0x8b, 0xbe, 0x35, 0xae, 0x18, 0xbe, 0xa6, 0x7a, 0x99, 0xbe, 0xef, 0x4b, 0x9b, 0x3e,
  0xfa, 0xb4, 0x6e, 0x3d, 0x56, 0x28, 0x90, 0xbe, 0xc2, 0x05, 0x83, 0x3e, 0x1d, 0x46, 0x99, 0xbe,
  0x30, 0x14, 0x3a, 0xbe, 0xcb, 0x4f, 0x05, 0xbf, 0xc9, 0x76, 0x05, 0x3e, 0x25, 0x34, 0x9c, 0xbd,
  0x7f, 0x5b, 0x06, 0x3f, 0x1b, 0x27, 0xe4, 0xbd, 0x22, 0xef, 0x88, 0x3d, 0x51, 0x96, 0x95, 0xbe,
  0x91, 0x34, 0x97, 0xbe, 0x33, 0x32, 0x4d, 0x3e, 0xde, 0x4d, 0xa6, 0xbd, 0xec, 0x95, 0xbb, 0x3e,
  0x67, 0xa1, 0x07, 0x3f, 0x0c, 0x16, 0xf0, 0xbb, 0x5f, 0x7f, 0xe9, 0x3e, 0x8d, 0x45, 0x17, 0xbe,
  0x1b, 0x7a, 0x8f, 0xbe, 0x2a, 0x72, 0x9b, 0x3d, 0xc6, 0xa6, 0x67, 0x3e, 0xc2, 0x86, 0xa7, 0xbe,
  0x30, 0x65, 0x6b, 0x3e, 0x8d, 0x7c, 0xab, 0x3e, 0xb2, 0x87, 0x3b, 0xbd, 0x59, 0xc2, 0xcb, 0x3e,
  0xa9, 0x73, 0x48, 0xbe, 0x1f, 0xbb, 0x95, 0xbd, 0x34, 0xf3, 0x42, 0xbe, 0x7c, 0x31, 0xd5, 0xbe,
  0x9f, 0x2e, 0x10, 0x3e, 0xda, 0x73, 0xcf, 0xbe, 0xec, 0x46, 0x3f, 0xbe, 0x99, 0x8c, 0xca, 0xbe,
  0x9d, 0xf0, 0xbf, 0x3a, 0xed, 0x72, 0x04, 0xbf, 0x2b, 0xcf, 0xaa, 0xbc, 0x24, 0xe2, 0x3b, 0x3d,
  0x82, 0xac, 0x41, 0xbd, 0xac, 0xf4, 0xed, 0xbe, 0xc5, 0x83, 0x6f, 0x3e, 0xbb, 0x02, 0xc6, 0xbc,
  0x3b, 0x36, 0x9b, 0x3e, 0x9a, 0xb9, 0x88, 0xbd, 0xce, 0x31, 0x93, 0x3e, 0x7a, 0xea, 0x15, 0xbf,
  0xba, 0xe3, 0x22, 0xbe, 0x38, 0xa3, 0x64, 0xbe, 0xcc, 0xb9, 0xb0, 0x3e, 0xc7, 0xa6, 0xdd, 0x3e,
  0xaa, 0x4c, 0x0a, 0xbf, 0x6b, 0xd4, 0x80, 0x3d, 0xc2, 0x79, 0xf6, 0x3d, 0xb5, 0x3c, 0x86, 0x3e,
  0xe8, 0x75, 0x78, 0x3d, 0x49, 0x5e, 0x1f, 0xbe, 0xa8, 0x3b, 0x09, 0x3f, 0xf5, 0x44, 0x40, 0xbd,
  0xb4, 0xc4, 0xfe, 0x3d, 0x85, 0x64, 0x38, 0x3d, 0x4f, 0x0e, 0x85, 0xbe, 0x46, 0x13, 0x73, 0xbe,
  0x99, 0x69, 0xc8, 0x3e, 0x12, 0xc5, 0x3c, 0xbe, 0xa6, 0x9a, 0xa6, 0x3e, 0xe1, 0x6a, 0x5d, 0x3c,
  0x46, 0x95, 0x0c, 0xbe, 0x67, 0x6f, 0x3f, 0xbe, 0x05, 0x5c, 0x5a, 0x3e, 0xb0, 0xf3, 0x09, 0x3f,
  0xb0, 0x15, 0xb8, 0x3d, 0x57, 0xc4, 0x37, 0xbf, 0xbc, 0xbc, 0xab, 0xbd, 0x42, 0x84, 0xcc, 0x3e,
  0xd6, 0x18, 0xd9, 0x3e, 0x58, 0x26, 0x85, 0xbd, 0x41, 0x09, 0x8e, 0xbe, 0x7d, 0xf1, 0x36, 0x3c,
  0x4a, 0x7a, 0x21, 0xbf, 0x5b, 0xa2, 0xcf, 0x3e, 0x23, 0x25, 0x02, 0x3d, 0x19, 0x2e, 0x1c, 0xbe,
  0x6f, 0x71, 0x69, 0x3e, 0x9c, 0x98, 0x03, 0xbe, 0x9a, 0xc4, 0x1d, 0xbd, 0x9f, 0x1b, 0x8e, 0xbe,
  0xe8, 0x6f, 0xbf, 0x3e, 0xd3, 0xfe, 0x37, 0x3d, 0x86, 0xa9, 0x01, 0x3d, 0xa1, 0xa4, 0xec, 0x3e,
  0x63, 0xed, 0x60, 0x3e, 0xfe, 0xe5, 0x1f, 0xbe, 0x79, 0x07, 0xc7, 0x3e, 0x4a, 0x6a, 0xaa, 0x3e,
  0x93, 0x01, 0x3a, 0x3e, 0xed, 0xe4, 0xf1, 0xbe, 0xec, 0xdb, 0x77, 0x3e, 0x3c, 0x98, 0x93, 0xbd,
  0x5b, 0xbf, 0xe7, 0xbe, 0x48, 0xcc, 0x0f, 0xbe, 0xfc, 0xd3, 0xc4, 0x3e, 0x78, 0x1a, 0x0c, 0x3f,
  0xcb, 0x7f, 0x18, 0xbd, 0x99, 0x5a, 0x7e, 0xbe, 0xd9, 0x26, 0xbd, 0xbe, 0x02, 0x96, 0x0d, 0xbe,
  0xa9, 0x94, 0xc3, 0x3e, 0x91, 0x2a, 0xb4, 0xbe, 0xd4, 0x3d, 0x14, 0xbf, 0xf3, 0x65, 0x40, 0x3e,
  0x09, 0x3a, 0xac, 0xbe, 0xc6, 0xec, 0x0a, 0x3f, 0x40, 0x87, 0x5a, 0xbe, 0x4a, 0xbc, 0x9c, 0x3e,
  0x6c, 0xf5, 0x9f, 0x3e, 0x6a, 0x21, 0x7e, 0xbe, 0xeb, 0x3d, 0xfd, 0xbd, 0x15, 0x93, 0x27, 0xbe,
  0xf9, 0xae, 0xa3, 0x3e, 0xb8, 0xb9, 0xa7, 0xbb, 0xfb, 0x78, 0xdf, 0xbd, 0x4d, 0x63, 0xf5, 0x3d,
  0x03, 0xc7, 0xb9, 0xbe, 0xb1, 0xe5, 0x69, 0xbf, 0x41, 0xdd, 0xbf, 0xbe, 0x91, 0x4a, 0x6e, 0xbf,
  0x95, 0xf1, 0xa1, 0x3c, 0xc0, 0x06, 0xe5, 0x3e, 0xbe, 0xae, 0x28, 0x3f, 0x53, 0x21, 0x02, 0x3e,
  0xf7, 0xc4, 0xaf, 0xbc, 0x62, 0xff, 0xff, 0xff, 0x04, 0x00, 0x00, 0x00, 0x80, 0x00, 0x00, 0x00,
  0x07, 0xd9, 0x1b, 0x3f, 0xf2, 0xb1, 0x1f, 0x3f, 0xed, 0xc8, 0x0e, 0xbf, 0x03, 0xb1, 0x87, 0x3f,
  0xdc, 0xbf, 0x92, 0x3f, 0xd3, 0xf7, 0xce, 0xbe, 0x85, 0xe4, 0xaa, 0xbe, 0xa4, 0xdc, 0x5a, 0x3e,
  0x7a, 0x66, 0x20, 0xbf, 0x14, 0x36, 0x3c, 0x3f, 0x64, 0xee, 0xb3, 0x3e, 0x57, 0x65, 0x60, 0x3f,
  0xcd, 0xa3, 0x8f, 0x3e, 0xfb, 0x3c, 0x38, 0x3f, 0x63, 0x61, 0xaa, 0xbe, 0x25, 0x39, 0xfe, 0xbe,
  0x0f, 0x09, 0x87, 0x3f, 0x39, 0x87, 0x24, 0x3f, 0x18, 0xba, 0x69, 0x3f, 0xb1, 0x17, 0x38, 0xbf,
  0x0f, 0x92, 0x33, 0x3f, 0x0a, 0xf6, 0x19, 0x3f, 0x81, 0xdc, 0x5c, 0xbf, 0x1c, 0xb8, 0x4a, 0x3f,
  0xc6, 0x38, 0x31, 0x3f, 0x4a, 0xed, 0x1b, 0x3f, 0x7d, 0x18, 0x65, 0x3f, 0x52, 0x16, 0xa7, 0x3d,
  0x1c, 0x0a, 0x2c, 0xbf, 0x28, 0xf7, 0xb3, 0x3e, 0xc1, 0x80, 0x27, 0xbf, 0x5d, 0xde, 0xe1, 0x3f,
  0xee, 0xff, 0xff, 0xff, 0x04, 0x00, 0x00, 0x00, 0x04, 0x00, 0x00, 0x00, 0x60, 0xb6, 0x60, 0xbd,
  0x00, 0x00, 0x06, 0x00, 0x08, 0x00, 0x04, 0x00, 0x06, 0x00, 0x00, 0x00, 0x04, 0x00, 0x00, 0x00,
  0x80, 0x00, 0x00, 0x00, 0x75, 0x23, 0xbc, 0x3c, 0xac, 0xa0, 0x43, 0x3d, 0x27, 0xaf, 0xf1, 0x3c,
  0xd6, 0x1e, 0xef, 0x3d, 0x9b, 0x49, 0x3a, 0x3d, 0xf4, 0x6d, 0xd5, 0xbe, 0xc6, 0x36, 0x0e, 0xbd,
  0xa0, 0x49, 0x1d, 0xbc, 0xd8, 0x84, 0x1c, 0xbe, 0x7c, 0x27, 0x14, 0xbd, 0x4d, 0xcb, 0x5b, 0x3b,
  0xd8, 0xd0, 0x19, 0xbe, 0xfd, 0xa1, 0xe1, 0xbc, 0x75, 0x5e, 0xcd, 0xbd, 0x6a, 0xb6, 0x86, 0x3d,
  0x99, 0xcd, 0x2a, 0x3e, 0x50, 0x58, 0xb3, 0x3d, 0x61, 0x69, 0x2a, 0xbc, 0x25, 0x5c, 0xd8, 0xbd,
  0xb0, 0xa3, 0x6d, 0x3e, 0xd0, 0x9c, 0x05, 0x3e, 0x3a, 0xaa, 0x0f, 0xbd, 0xc4, 0xb7, 0x0f, 0xbd,
  0xa8, 0x8d, 0xc6, 0x3c, 0xba, 0x16, 0x18, 0x3e, 0xa8, 0x17, 0xee, 0xbc, 0xbe, 0x67, 0x9c, 0x3d,
  0xab, 0xce, 0x94, 0x3d, 0xd5, 0x05, 0x5e, 0xbe, 0xb9, 0x96, 0x2f, 0xbd, 0x4f, 0x50, 0xae, 0x3d,
  0xb4, 0x43, 0x3b, 0x3e, 0x30, 0xfa, 0xff, 0xff, 0x34, 0xfa, 0xff, 0xff, 0x0f, 0x00, 0x00, 0x00,
  0x4d, 0x4c, 0x49, 0x52, 0x20, 0x43, 0x6f, 0x6e, 0x76, 0x65, 0x72, 0x74, 0x65, 0x64, 0x2e, 0x00,
  0x01, 0x00, 0x00, 0x00, 0x14, 0x00, 0x00, 0x00, 0x00, 0x00, 0x0e, 0x00, 0x18, 0x00, 0x14, 0x00,
  0x10, 0x00, 0x0c, 0x00, 0x08, 0x00, 0x04, 0x00, 0x0e, 0x00, 0x00, 0x00, 0x14, 0x00, 0x00, 0x00,
  0x1c, 0x00, 0x00, 0x00, 0x18, 0x01, 0x00, 0x00, 0x1c, 0x01, 0x00, 0x00, 0x20, 0x01, 0x00, 0x00,
  0x04, 0x00, 0x00, 0x00, 0x6d, 0x61, 0x69, 0x6e, 0x00, 0x00, 0x00, 0x00, 0x04, 0x00, 0x00, 0x00,
  0xc0, 0x00, 0x00, 0x00, 0x78, 0x00, 0x00, 0x00, 0x34, 0x00, 0x00, 0x00, 0x10, 0x00, 0x00, 0x00,
  0x00, 0x00, 0x0a, 0x00, 0x10, 0x00, 0x0c, 0x00, 0x08, 0x00, 0x04, 0x00, 0x0a, 0x00, 0x00, 0x00,
  0x0c, 0x00, 0x00, 0x00, 0x10, 0x00, 0x00, 0x00, 0x01, 0x00, 0x00, 0x00, 0x01, 0x00, 0x00, 0x00,
  0x0a, 0x00, 0x00, 0x00, 0x01, 0x00, 0x00, 0x00, 0x09, 0x00, 0x00, 0x00, 0xce, 0xff, 0xff, 0xff,
  0x10, 0x00, 0x00, 0x00, 0x00, 0x00, 0x00, 0x08, 0x0c, 0x00, 0x00, 0x00, 0x10, 0x00, 0x00, 0x00,
  0xdc, 0xfa, 0xff, 0xff, 0x01, 0x00, 0x00, 0x00, 0x09, 0x00, 0x00, 0x00, 0x03, 0x00, 0x00, 0x00,
  0x08, 0x00, 0x00, 0x00, 0x03, 0x00, 0x00, 0x00, 0x02, 0x00, 0x00, 0x00, 0x00, 0x00, 0x0e, 0x00,
  0x14, 0x00, 0x00, 0x00, 0x10, 0x00, 0x0c, 0x00, 0x0b, 0x00, 0x04, 0x00, 0x0e, 0x00, 0x00, 0x00,
  0x10, 0x00, 0x00, 0x00, 0x00, 0x00, 0x00, 0x08, 0x10, 0x00, 0x00, 0x00, 0x14, 0x00, 0x00, 0x00,
  0xba, 0xff, 0xff, 0xff, 0x00, 0x00, 0x00, 0x01, 0x01, 0x00, 0x00, 0x00, 0x08, 0x00, 0x00, 0x00,
  0x03, 0x00, 0x00, 0x00, 0x07, 0x00, 0x00, 0x00, 0x04, 0x00, 0x00, 0x00, 0x01, 0x00, 0x00, 0x00,
  0x00, 0x00, 0x0e, 0x00, 0x16, 0x00, 0x00, 0x00, 0x10, 0x00, 0x0c, 0x00, 0x0b, 0x00, 0x04, 0x00,
  0x0e, 0x00, 0x00, 0x00, 0x18, 0x00, 0x00, 0x00, 0x00, 0x00, 0x00, 0x08, 0x18, 0x00, 0x00, 0x00,
  0x1c, 0x00, 0x00, 0x00, 0x00, 0x00, 0x06, 0x00, 0x08, 0x00, 0x07, 0x00, 0x06, 0x00, 0x00, 0x00,
  0x00, 0x00, 0x00, 0x01, 0x01, 0x00, 0x00, 0x00, 0x07, 0x00, 0x00, 0x00, 0x03, 0x00, 0x00, 0x00,
  0x00, 0x00, 0x00, 0x00, 0x05, 0x00, 0x00, 0x00, 0x06, 0x00, 0x00, 0x00, 0x01, 0x00, 0x00, 0x00,
  0x0a, 0x00, 0x00, 0x00, 0x01, 0x00, 0x00, 0x00, 0x00, 0x00, 0x00, 0x00, 0x0b, 0x00, 0x00, 0x00,
  0x3c, 0x04, 0x00, 0x00, 0xbc, 0x03, 0x00, 0x00, 0x5c, 0x03, 0x00, 0x00, 0x0c, 0x03, 0x00, 0x00,
  0xbc, 0x02, 0x00, 0x00, 0x70, 0x02, 0x00, 0x00, 0x0c, 0x02, 0x00, 0x00, 0x78, 0x01, 0x00, 0x00,
  0xdc, 0x00, 0x00, 0x00, 0x60, 0x00, 0x00, 0x00, 0x04, 0x00, 0x00, 0x00, 0x06, 0xfc, 0xff, 0xff,
  0x00, 0x00, 0x00, 0x01, 0x14, 0x00, 0x00, 0x00, 0x1c, 0x00, 0x00, 0x00, 0x1c, 0x00, 0x00, 0x00,
  0x0b, 0x00, 0x00, 0x00, 0x34, 0x00, 0x00, 0x00, 0x02, 0x00, 0x00, 0x00, 0xff, 0xff, 0xff, 0xff,
  0x01, 0x00, 0x00, 0x00, 0xf0, 0xfb, 0xff, 0xff, 0x1b, 0x00, 0x00, 0x00, 0x53, 0x74, 0x61, 0x74,
  0x65, 0x66, 0x75, 0x6c, 0x50, 0x61, 0x72, 0x74, 0x69, 0x74, 0x69, 0x6f, 0x6e, 0x65, 0x64, 0x43,
  0x61, 0x6c, 0x6c, 0x5f, 0x31, 0x3a, 0x30, 0x00, 0x02, 0x00, 0x00, 0x00, 0x01, 0x00, 0x00, 0x00,
  0x01, 0x00, 0x00, 0x00, 0x5e, 0xfc, 0xff, 0xff, 0x00, 0x00, 0x00, 0x01, 0x14, 0x00, 0x00, 0x00,
  0x1c, 0x00, 0x00, 0x00, 0x1c, 0x00, 0x00, 0x00, 0x0a, 0x00, 0x00, 0x00, 0x54, 0x00, 0x00, 0x00,
  0x02, 0x00, 0x00, 0x00, 0xff, 0xff, 0xff, 0xff, 0x01, 0x00, 0x00, 0x00, 0x48, 0xfc, 0xff, 0xff,
  0x38, 0x00, 0x00, 0x00, 0x73, 0x65, 0x71, 0x75, 0x65, 0x6e, 0x74, 0x69, 0x61, 0x6c, 0x5f, 0x31,
  0x2f, 0x64, 0x65, 0x6e, 0x73, 0x65, 0x5f, 0x32, 0x5f, 0x31, 0x2f, 0x4d, 0x61, 0x74, 0x4d, 0x75,
  0x6c, 0x3b, 0x73, 0x65, 0x71, 0x75, 0x65, 0x6e, 0x74, 0x69, 0x61, 0x6c, 0x5f, 0x31, 0x2f, 0x64,
  0x65, 0x6e, 0x73, 0x65, 0x5f, 0x32, 0x5f, 0x31, 0x2f, 0x41, 0x64, 0x64, 0x00, 0x00, 0x00, 0x00,
  0x02, 0x00, 0x00, 0x00, 0x01, 0x00, 0x00, 0x00, 0x01, 0x00, 0x00, 0x00, 0xd6, 0xfc, 0xff, 0xff,
  0x00, 0x00, 0x00, 0x01, 0x14, 0x00, 0x00, 0x00, 0x1c, 0x00, 0x00, 0x00, 0x1c, 0x00, 0x00, 0x00,
  0x09, 0x00, 0x00, 0x00, 0x74, 0x00, 0x00, 0x00, 0x02, 0x00, 0x00, 0x00, 0xff, 0xff, 0xff, 0xff,
  0x20, 0x00, 0x00, 0x00, 0xc0, 0xfc, 0xff, 0xff, 0x58, 0x00, 0x00, 0x00, 0x73, 0x65, 0x71, 0x75,
  0x65, 0x6e, 0x74, 0x69, 0x61, 0x6c, 0x5f, 0x31, 0x2f, 0x64, 0x65, 0x6e, 0x73, 0x65, 0x5f, 0x31,
  0x5f, 0x32, 0x2f, 0x4d, 0x61, 0x74, 0x4d, 0x75, 0x6c, 0x3b, 0x73, 0x65, 0x71, 0x75, 0x65, 0x6e,
  0x74, 0x69, 0x61, 0x6c, 0x5f, 0x31, 0x2f, 0x64, 0x65, 0x6e, 0x73, 0x65, 0x5f, 0x31, 0x5f, 0x32,
  0x2f, 0x52, 0x65, 0x6c, 0x75, 0x3b, 0x73, 0x65, 0x71, 0x75, 0x65, 0x6e, 0x74, 0x69, 0x61, 0x6c,
  0x5f, 0x31, 0x2f, 0x64, 0x65, 0x6e, 0x73, 0x65, 0x5f, 0x31, 0x5f, 0x32, 0x2f, 0x42, 0x69, 0x61,
  0x73, 0x41, 0x64, 0x64, 0x00, 0x00, 0x00, 0x00, 0x02, 0x00, 0x00, 0x00, 0x01, 0x00, 0x00, 0x00,
  0x20, 0x00, 0x00, 0x00, 0x6e, 0xfd, 0xff, 0xff, 0x00, 0x00, 0x00, 0x01, 0x14, 0x00, 0x00, 0x00,
  0x1c, 0x00, 0x00, 0x00, 0x1c, 0x00, 0x00, 0x00, 0x08, 0x00, 0x00, 0x00, 0x6c, 0x00, 0x00, 0x00,
  0x02, 0x00, 0x00, 0x00, 0xff, 0xff, 0xff, 0xff, 0x10, 0x00, 0x00, 0x00, 0x58, 0xfd, 0xff, 0xff,
  0x52, 0x00, 0x00, 0x00, 0x73, 0x65, 0x71, 0x75, 0x65, 0x6e, 0x74, 0x69, 0x61, 0x6c, 0x5f, 0x31,
  0x2f, 0x64, 0x65, 0x6e, 0x73, 0x65, 0x5f, 0x31, 0x2f, 0x4d, 0x61, 0x74, 0x4d, 0x75, 0x6c, 0x3b,
  0x73, 0x65, 0x71, 0x75, 0x65, 0x6e, 0x74, 0x69, 0x61, 0x6c, 0x5f, 0x31, 0x2f, 0x64, 0x65, 0x6e,
  0x73, 0x65, 0x5f, 0x31, 0x2f, 0x52, 0x65, 0x6c, 0x75, 0x3b, 0x73, 0x65, 0x71, 0x75, 0x65, 0x6e,
  0x74, 0x69, 0x61, 0x6c, 0x5f, 0x31, 0x2f, 0x64, 0x65, 0x6e, 0x73, 0x65, 0x5f, 0x31, 0x2f, 0x42,
  0x69, 0x61, 0x73, 0x41, 0x64, 0x64, 0x00, 0x00, 0x02, 0x00, 0x00, 0x00, 0x01, 0x00, 0x00, 0x00,
  0x10, 0x00, 0x00, 0x00, 0x7a, 0xfe, 0xff, 0xff, 0x00, 0x00, 0x00, 0x01, 0x10, 0x00, 0x00, 0x00,
  0x10, 0x00, 0x00, 0x00, 0x07, 0x00, 0x00, 0x00, 0x44, 0x00, 0x00, 0x00, 0xd8, 0xfd, 0xff, 0xff,
  0x36, 0x00, 0x00, 0x00, 0x73, 0x65, 0x71, 0x75, 0x65, 0x6e, 0x74, 0x69, 0x61, 0x6c, 0x5f, 0x31,
  0x2f, 0x64, 0x65, 0x6e, 0x73, 0x65, 0x5f, 0x31, 0x2f, 0x52, 0x65, 0x6c, 0x75, 0x3b, 0x73, 0x65,
  0x71, 0x75, 0x65, 0x6e, 0x74, 0x69, 0x61, 0x6c, 0x5f, 0x31, 0x2f, 0x64, 0x65, 0x6e, 0x73, 0x65,
  0x5f, 0x31, 0x2f, 0x42, 0x69, 0x61, 0x73, 0x41, 0x64, 0x64, 0x00, 0x00, 0x01, 0x00, 0x00, 0x00,
  0x10, 0x00, 0x00, 0x00, 0xda, 0xfe, 0xff, 0xff, 0x00, 0x00, 0x00, 0x01, 0x10, 0x00, 0x00, 0x00,
  0x10, 0x00, 0x00, 0x00, 0x06, 0x00, 0x00, 0x00, 0x28, 0x00, 0x00, 0x00, 0x38, 0xfe, 0xff, 0xff,
  0x1b, 0x00, 0x00, 0x00, 0x73, 0x65, 0x71, 0x75, 0x65, 0x6e, 0x74, 0x69, 0x61, 0x6c, 0x5f, 0x31,
  0x2f, 0x64, 0x65, 0x6e, 0x73, 0x65, 0x5f, 0x31, 0x2f, 0x4d, 0x61, 0x74, 0x4d, 0x75, 0x6c, 0x00,
  0x02, 0x00, 0x00, 0x00, 0x10, 0x00, 0x00, 0x00, 0x0d, 0x00, 0x00, 0x00, 0x22, 0xff, 0xff, 0xff,
  0x00, 0x00, 0x00, 0x01, 0x10, 0x00, 0x00, 0x00, 0x10, 0x00, 0x00, 0x00, 0x05, 0x00, 0x00, 0x00,
  0x2c, 0x00, 0x00, 0x00, 0x80, 0xfe, 0xff, 0xff, 0x1d, 0x00, 0x00, 0x00, 0x73, 0x65, 0x71, 0x75,
  0x65, 0x6e, 0x74, 0x69, 0x61, 0x6c, 0x5f, 0x31, 0x2f, 0x64, 0x65, 0x6e, 0x73, 0x65, 0x5f, 0x31,
  0x5f, 0x32, 0x2f, 0x4d, 0x61, 0x74, 0x4d, 0x75, 0x6c, 0x00, 0x00, 0x00, 0x02, 0x00, 0x00, 0x00,
  0x20, 0x00, 0x00, 0x00, 0x10, 0x00, 0x00, 0x00, 0x6e, 0xff, 0xff, 0xff, 0x00, 0x00, 0x00, 0x01,
  0x10, 0x00, 0x00, 0x00, 0x10, 0x00, 0x00, 0x00, 0x04, 0x00, 0x00, 0x00, 0x2c, 0x00, 0x00, 0x00,
  0xcc, 0xfe, 0xff, 0xff, 0x1d, 0x00, 0x00, 0x00, 0x73, 0x65, 0x71, 0x75, 0x65, 0x6e, 0x74, 0x69,
  0x61, 0x6c, 0x5f, 0x31, 0x2f, 0x64, 0x65, 0x6e, 0x73, 0x65, 0x5f, 0x32, 0x5f, 0x31, 0x2f, 0x4d,
  0x61, 0x74, 0x4d, 0x75, 0x6c, 0x00, 0x00, 0x00, 0x02, 0x00, 0x00, 0x00, 0x01, 0x00, 0x00, 0x00,
  0x20, 0x00, 0x00, 0x00, 0xba, 0xff, 0xff, 0xff, 0x00, 0x00, 0x00, 0x01, 0x10, 0x00, 0x00, 0x00,
  0x10, 0x00, 0x00, 0x00, 0x03, 0x00, 0x00, 0x00, 0x28, 0x00, 0x00, 0x00, 0x18, 0xff, 0xff, 0xff,
  0x1a, 0x00, 0x00, 0x00, 0x73, 0x65, 0x71, 0x75, 0x65, 0x6e, 0x74, 0x69, 0x61, 0x6c, 0x5f, 0x31,
  0x2f, 0x64, 0x65, 0x6e, 0x73, 0x65, 0x5f, 0x32, 0x5f, 0x31, 0x2f, 0x41, 0x64, 0x64, 0x00, 0x00,
  0x01, 0x00, 0x00, 0x00, 0x01, 0x00, 0x00, 0x00, 0x00, 0x00, 0x16, 0x00, 0x18, 0x00, 0x14, 0x00,
  0x00, 0x00, 0x10, 0x00, 0x0c, 0x00, 0x08, 0x00, 0x00, 0x00, 0x00, 0x00, 0x00, 0x00, 0x07, 0x00,
  0x16, 0x00, 0x00, 0x00, 0x00, 0x00, 0x00, 0x01, 0x10, 0x00, 0x00, 0x00, 0x10, 0x00, 0x00, 0x00,
  0x02, 0x00, 0x00, 0x00, 0x48, 0x00, 0x00, 0x00, 0x74, 0xff, 0xff, 0xff, 0x3a, 0x00, 0x00, 0x00,
  0x73, 0x65, 0x71, 0x75, 0x65, 0x6e, 0x74, 0x69, 0x61, 0x6c, 0x5f, 0x31, 0x2f, 0x64, 0x65, 0x6e,
  0x73, 0x65, 0x5f, 0x31, 0x5f, 0x32, 0x2f, 0x52, 0x65, 0x6c, 0x75, 0x3b, 0x73, 0x65, 0x71, 0x75,
  0x65, 0x6e, 0x74, 0x69, 0x61, 0x6c, 0x5f, 0x31, 0x2f, 0x64, 0x65, 0x6e, 0x73, 0x65, 0x5f, 0x31,
  0x5f, 0x32, 0x2f, 0x42, 0x69, 0x61, 0x73, 0x41, 0x64, 0x64, 0x00, 0x00, 0x01, 0x00, 0x00, 0x00,
  0x20, 0x00, 0x00, 0x00, 0x00, 0x00, 0x16, 0x00, 0x1c, 0x00, 0x18, 0x00, 0x00, 0x00, 0x14, 0x00,
  0x10, 0x00, 0x0c, 0x00, 0x00, 0x00, 0x00, 0x00, 0x08, 0x00, 0x07, 0x00, 0x16, 0x00, 0x00, 0x00,
  0x00, 0x00, 0x00, 0x01, 0x14, 0x00, 0x00, 0x00, 0x20, 0x00, 0x00, 0x00, 0x20, 0x00, 0x00, 0x00,
  0x01, 0x00, 0x00, 0x00, 0x3c, 0x00, 0x00, 0x00, 0x02, 0x00, 0x00, 0x00, 0xff, 0xff, 0xff, 0xff,
  0x0d, 0x00, 0x00, 0x00, 0x04, 0x00, 0x04, 0x00, 0x04, 0x00, 0x00, 0x00, 0x1e, 0x00, 0x00, 0x00,
  0x73, 0x65, 0x72, 0x76, 0x69, 0x6e, 0x67, 0x5f, 0x64, 0x65, 0x66, 0x61, 0x75, 0x6c, 0x74, 0x5f,
  0x6b, 0x65, 0x72, 0x61, 0x73, 0x5f, 0x74, 0x65, 0x6e, 0x73, 0x6f, 0x72, 0x3a, 0x30, 0x00, 0x00,
  0x02, 0x00, 0x00, 0x00, 0x01, 0x00, 0x00, 0x00, 0x0d, 0x00, 0x00, 0x00, 0x02, 0x00, 0x00, 0x00,
  0x20, 0x00, 0x00, 0x00, 0x04, 0x00, 0x00, 0x00, 0xf4, 0xff, 0xff, 0xff, 0x0e, 0x00, 0x00, 0x00,
  0x00, 0x00, 0x00, 0x0e, 0x0c, 0x00, 0x0c, 0x00, 0x0b, 0x00, 0x00, 0x00, 0x00, 0x00, 0x04, 0x00,
  0x0c, 0x00, 0x00, 0x00, 0x09, 0x00, 0x00, 0x00, 0x00, 0x00, 0x00, 0x09
};

const int g_model_len = 5356;
