// Gerado por train_models.py — Detection of Acoustic Anomalies
// Modelo MFCC+MLP: Dense(13->16,relu)->Dense(16->32,relu)->Dense(32->1,sigmoid)
// Features: 13 coeficientes MFCC normalizados (StandardScaler)
// Acuracia treino: 100.0%  val: 99.0%  teste: 99.2%
// float32 | 5356 bytes

#include "model.h"

alignas(8) const unsigned char g_model[] = {
  0x1c, 0x00, 0x00, 0x00, 0x54, 0x46, 0x4c, 0x33, 0x14, 0x00, 0x20, 0x00, 0x1c, 0x00, 0x18, 0x00,
  0x14, 0x00, 0x10, 0x00, 0x0c, 0x00, 0x00, 0x00, 0x08, 0x00, 0x04, 0x00, 0x14, 0x00, 0x00, 0x00,
  0x1c, 0x00, 0x00, 0x00, 0x8c, 0x00, 0x00, 0x00, 0xe4, 0x00, 0x00, 0x00, 0x90, 0x0e, 0x00, 0x00,
  0xa0, 0x0e, 0x00, 0x00, 0x88, 0x14, 0x00, 0x00, 0x03, 0x00, 0x00, 0x00, 0x01, 0x00, 0x00, 0x00,
  0x04, 0x00, 0x00, 0x00, 0x22, 0xf1, 0xff, 0xff, 0x0c, 0x00, 0x00, 0x00, 0x1c, 0x00, 0x00, 0x00,
  0x3c, 0x00, 0x00, 0x00, 0x0f, 0x00, 0x00, 0x00, 0x73, 0x65, 0x72, 0x76, 0x69, 0x6e, 0x67, 0x5f,
  0x64, 0x65, 0x66, 0x61, 0x75, 0x6c, 0x74, 0x00, 0x01, 0x00, 0x00, 0x00, 0x04, 0x00, 0x00, 0x00,
  0x90, 0xff, 0xff, 0xff, 0x0a, 0x00, 0x00, 0x00, 0x04, 0x00, 0x00, 0x00, 0x08, 0x00, 0x00, 0x00,
  0x6f, 0x75, 0x74, 0x70, 0x75, 0x74, 0x5f, 0x30, 0x00, 0x00, 0x00, 0x00, 0x01, 0x00, 0x00, 0x00,
  0x04, 0x00, 0x00, 0x00, 0x72, 0xf2, 0xff, 0xff, 0x04, 0x00, 0x00, 0x00, 0x0c, 0x00, 0x00, 0x00,
  0x6b, 0x65, 0x72, 0x61, 0x73, 0x5f, 0x74, 0x65, 0x6e, 0x73, 0x6f, 0x72, 0x00, 0x00, 0x00, 0x00,
  0x02, 0x00, 0x00, 0x00, 0x34, 0x00, 0x00, 0x00, 0x04, 0x00, 0x00, 0x00, 0xdc, 0xff, 0xff, 0xff,
  0x0d, 0x00, 0x00, 0x00, 0x04, 0x00, 0x00, 0x00, 0x13, 0x00, 0x00, 0x00, 0x43, 0x4f, 0x4e, 0x56,
  0x45, 0x52, 0x53, 0x49, 0x4f, 0x4e, 0x5f, 0x4d, 0x45, 0x54, 0x41, 0x44, 0x41, 0x54, 0x41, 0x00,
  0x08, 0x00, 0x0c, 0x00, 0x08, 0x00, 0x04, 0x00, 0x08, 0x00, 0x00, 0x00, 0x0c, 0x00, 0x00, 0x00,
  0x04, 0x00, 0x00, 0x00, 0x13, 0x00, 0x00, 0x00, 0x6d, 0x69, 0x6e, 0x5f, 0x72, 0x75, 0x6e, 0x74,
  0x69, 0x6d, 0x65, 0x5f, 0x76, 0x65, 0x72, 0x73, 0x69, 0x6f, 0x6e, 0x00, 0x0e, 0x00, 0x00, 0x00,
  0xa8, 0x0d, 0x00, 0x00, 0xa0, 0x0d, 0x00, 0x00, 0x10, 0x0d, 0x00, 0x00, 0xf4, 0x0c, 0x00, 0x00,
  0x64, 0x0c, 0x00, 0x00, 0x54, 0x04, 0x00, 0x00, 0x04, 0x01, 0x00, 0x00, 0xb4, 0x00, 0x00, 0x00,
  0xac, 0x00, 0x00, 0x00, 0xa4, 0x00, 0x00, 0x00, 0x9c, 0x00, 0x00, 0x00, 0x94, 0x00, 0x00, 0x00,
  0x74, 0x00, 0x00, 0x00, 0x04, 0x00, 0x00, 0x00, 0x26, 0xf3, 0xff, 0xff, 0x04, 0x00, 0x00, 0x00,
  0x60, 0x00, 0x00, 0x00, 0x10, 0x00, 0x00, 0x00, 0x00, 0x00, 0x00, 0x00, 0x08, 0x00, 0x0e, 0x00,
  0x08, 0x00, 0x04, 0x00, 0x08, 0x00, 0x00, 0x00, 0x10, 0x00, 0x00, 0x00, 0x24, 0x00, 0x00, 0x00,
  0x00, 0x00, 0x06, 0x00, 0x08, 0x00, 0x04, 0x00, 0x06, 0x00, 0x00, 0x00, 0x04, 0x00, 0x00, 0x00,
  0x00, 0x00, 0x00, 0x00, 0x0c, 0x00, 0x18, 0x00, 0x14, 0x00, 0x10, 0x00, 0x0c, 0x00, 0x04, 0x00,
  0x0c, 0x00, 0x00, 0x00, 0x04, 0xc0, 0xbe, 0x92, 0x7e, 0x5c, 0xcc, 0x1b, 0x02, 0x00, 0x00, 0x00,
  0x02, 0x00, 0x00, 0x00, 0x04, 0x00, 0x00, 0x00, 0x06, 0x00, 0x00, 0x00, 0x32, 0x2e, 0x32, 0x31,
  0x2e, 0x30, 0x00, 0x00, 0x92, 0xf3, 0xff, 0xff, 0x04, 0x00, 0x00, 0x00, 0x10, 0x00, 0x00, 0x00,
  0x31, 0x2e, 0x31, 0x34, 0x2e, 0x30, 0x00, 0x00, 0x00, 0x00, 0x00, 0x00, 0x00, 0x00, 0x00, 0x00,
  0x4c, 0xed, 0xff, 0xff, 0x50, 0xed, 0xff, 0xff, 0x54, 0xed, 0xff, 0xff, 0x58, 0xed, 0xff, 0xff,
  0xbe, 0xf3, 0xff, 0xff, 0x04, 0x00, 0x00, 0x00, 0x40, 0x00, 0x00, 0x00, 0x34, 0x9d, 0xca, 0xbe,
  0xdf, 0x7e, 0xf3, 0x3e, 0xf4, 0x77, 0x04, 0xbf, 0x92, 0xac, 0x14, 0xbf, 0x55, 0x3b, 0x6c, 0x3d,
  0xff, 0x54, 0x66, 0x3d, 0x90, 0x41, 0x11, 0x3f, 0xf8, 0xd2, 0xab, 0xbe, 0xe8, 0x75, 0x80, 0x3f,
  0x09, 0x0d, 0x79, 0x3f, 0x8d, 0xf0, 0x68, 0xbd, 0x0b, 0x0f, 0x68, 0xbe, 0xd9, 0x01, 0xf8, 0x3d,
  0x78, 0xe8, 0x26, 0x3f, 0xcc, 0x82, 0xd7, 0x3e, 0x0e, 0x12, 0x86, 0x3c, 0x0a, 0xf4, 0xff, 0xff,
  0x04, 0x00, 0x00, 0x00, 0x40, 0x03, 0x00, 0x00, 0xa7, 0x8d, 0x72, 0xbe, 0xb8, 0x9f, 0x55, 0x3e,
  0x3f, 0x4d, 0x34, 0x3f, 0xd2, 0x81, 0x22, 0xbe, 0xc2, 0x45, 0x5b, 0xbe, 0xf9, 0xd7, 0x58, 0x3e,
  0x97, 0x3d, 0x8a, 0xbe, 0xb0, 0x8c, 0x9d, 0x3e, 0x00, 0xa3, 0x10, 0xbf, 0x2b, 0x32, 0x5a, 0xbd,
  0x79, 0xfd, 0x34, 0xbd, 0x67, 0x2e, 0x30, 0x3e, 0x5a, 0x13, 0x31, 0x3f, 0x7b, 0xbd, 0x2f, 0xbf,
  0x34, 0x9b, 0xdf, 0xbe, 0x47, 0x61, 0x10, 0xbe, 0xf9, 0xc9, 0x0d, 0x3e, 0xb5, 0x75, 0xba, 0xbe,
  0xbe, 0x9d, 0x11, 0xbe, 0x31, 0x3d, 0x05, 0x3f, 0x18, 0x63, 0xed, 0x3e, 0xfb, 0x88, 0x31, 0xbf,
  0xb0, 0x5c, 0xd7, 0x3e, 0x23, 0x8b, 0x29, 0xbe, 0xe5, 0x5c, 0x36, 0xbe, 0xda, 0x33, 0xec, 0x3e,
  0xe6, 0x4d, 0x02, 0x3f, 0x2e, 0x61, 0x25, 0x3f, 0x2c, 0xe0, 0xee, 0xbe, 0xfc, 0x0b, 0x8a, 0x3d,
  0xf4, 0x37, 0xa2, 0xbd, 0x84, 0xc6, 0xc1, 0xbe, 0x31, 0x11, 0xd1, 0x3d, 0xe7, 0x34, 0xd0, 0xbe,
  0xfe, 0xe3, 0xda, 0x3e, 0xa1, 0xb2, 0xee, 0x3e, 0x42, 0x2a, 0x28, 0x3d, 0x7d, 0x90, 0x92, 0x3d,
  0x0e, 0xb6, 0x64, 0x3e, 0xa7, 0x18, 0xba, 0xbe, 0x16, 0xfb, 0x3f, 0xbf, 0xa3, 0x0f, 0x01, 0xbf,
  0xe7, 0x49, 0x23, 0xbe, 0xd1, 0x5a, 0x3a, 0xbe, 0x69, 0x1d, 0x64, 0x3e, 0x06, 0x31, 0x5c, 0xbf,
  0xef, 0x64, 0x8c, 0xbe, 0x2f, 0x6d, 0x85, 0x3d, 0x3b, 0x73, 0x45, 0x3e, 0xa0, 0x81, 0x8f, 0xbd,
  0x0f, 0xfd, 0xb7, 0x3d, 0x5f, 0x41, 0x28, 0x3e, 0xc9, 0xd0, 0x06, 0xbf, 0xd7, 0xcd, 0x08, 0xbe,
  0xc4, 0xef, 0xc9, 0xbe, 0x22, 0xc9, 0x15, 0x3f, 0x1b, 0x71, 0x85, 0xbe, 0x73, 0xa5, 0x12, 0x3e,
  0xb9, 0x06, 0x37, 0xbe, 0x18, 0x13, 0x0b, 0x3e, 0x37, 0x73, 0xfb, 0xbe, 0x9c, 0x3f, 0xdc, 0xbd,
  0xe8, 0x3d, 0x40, 0xbf, 0xc2, 0x83, 0x74, 0xbd, 0x23, 0xae, 0xa8, 0xbe, 0x7a, 0xa3, 0x6b, 0x3e,
  0x1e, 0xc1, 0xbf, 0x3f, 0xa5, 0xc4, 0x53, 0xbf, 0x27, 0x38, 0x49, 0xbc, 0x7b, 0xc0, 0x94, 0xbe,
  0x3b, 0x14, 0x1a, 0x3e, 0x7e, 0xc0, 0x04, 0xbe, 0x9c, 0x7b, 0x98, 0x3e, 0x33, 0x0d, 0xa1, 0x3d,
  0x90, 0xd0, 0x78, 0x3e, 0xd2, 0xb9, 0xb8, 0x3d, 0x54, 0xe3, 0x36, 0xbe, 0x27, 0xa2, 0x8d, 0x3d,
  0x76, 0x30, 0x1c, 0x3f, 0x24, 0xf3, 0xea, 0x3e, 0x3e, 0xbe, 0x83, 0xbe, 0x11, 0x86, 0x77, 0xbd,
  0x58, 0x82, 0xcb, 0xbd, 0x47, 0x63, 0x1c, 0xbf, 0x09, 0x07, 0x9c, 0x3e, 0x16, 0x8f, 0x2d, 0x3c,
  0xc9, 0xa2, 0xde, 0x3d, 0x6b, 0xb4, 0x3c, 0x3f, 0xd8, 0x50, 0x92, 0xbe, 0x25, 0x2d, 0xb9, 0x3e,
  0x8e, 0x34, 0xe3, 0x3e, 0xd9, 0x48, 0xd0, 0xbe, 0x3b, 0xea, 0x06, 0xbe, 0x99, 0xf9, 0xee, 0xbe,
  0xc0, 0x28, 0xa9, 0xbe, 0x5e, 0xc9, 0xbc, 0x3e, 0x44, 0xf0, 0x59, 0xbf, 0xf2, 0x5c, 0xfe, 0x3d,
  0x4c, 0x70, 0xf4, 0xbd, 0xfa, 0x94, 0x05, 0xbf, 0x10, 0x98, 0xc1, 0xbe, 0x7d, 0xfc, 0xd6, 0xbe,
  0xb0, 0x90, 0xf4, 0xbd, 0x79, 0x6b, 0x1b, 0x3f, 0x67, 0x54, 0x9f, 0x3f, 0x6b, 0xd5, 0x92, 0xbe,
  0xaf, 0xa9, 0x14, 0xbe, 0x59, 0x99, 0x91, 0x3d, 0x18, 0x12, 0xeb, 0x3d, 0xba, 0x2e, 0x72, 0x3d,
  0xb3, 0x61, 0x27, 0xbf, 0x6c, 0xfa, 0xc5, 0x3d, 0x22, 0x4a, 0x5b, 0x3d, 0x51, 0xa8, 0xab, 0xbe,
  0x4c, 0x47, 0x47, 0x3e, 0xdb, 0x81, 0x82, 0x3d, 0xd8, 0x4c, 0x8b, 0x3e, 0x66, 0x25, 0x3a, 0x3e,
  0x75, 0x99, 0xce, 0x3d, 0x4e, 0x12, 0x29, 0x3c, 0x2a, 0xcb, 0x51, 0xbf, 0x9d, 0x49, 0x11, 0xbf,
  0x24, 0xf0, 0x94, 0xbe, 0x6d, 0x73, 0x60, 0x3f, 0xb5, 0x41, 0x34, 0x3e, 0xda, 0x3e, 0xce, 0x3e,
  0x63, 0x2a, 0xaf, 0x3d, 0xf5, 0x17, 0x24, 0xbf, 0x5f, 0x23, 0x8c, 0x3e, 0x4e, 0x60, 0x5c, 0xbf,
  0x4b, 0x04, 0x01, 0x3e, 0xd8, 0x1d, 0xbb, 0x3e, 0xb8, 0x34, 0x16, 0xbf, 0xc7, 0x10, 0x23, 0x3f,
  0x0e, 0x2c, 0xae, 0x3e, 0xfa, 0xe2, 0x41, 0x3f, 0xf2, 0x07, 0xf8, 0xbe, 0x1c, 0x26, 0x92, 0x3e,
  0x85, 0xf6, 0x53, 0x3e, 0xd4, 0x5d, 0xe5, 0x3e, 0x51, 0x57, 0x61, 0xbd, 0xec, 0x81, 0x5b, 0x3e,
  0xdf, 0xe7, 0xfb, 0x3d, 0x8d, 0x45, 0x8a, 0x3f, 0x64, 0xb9, 0x8f, 0xbf, 0xed, 0x01, 0x5b, 0xbe,
  0x09, 0x20, 0x6d, 0x3e, 0x25, 0x24, 0x55, 0x3e, 0xe1, 0xa3, 0x21, 0x3f, 0x23, 0xc3, 0x32, 0xbe,
  0xbb, 0xe8, 0x89, 0x3e, 0x7b, 0xf6, 0x2f, 0xbd, 0x61, 0xc3, 0xd7, 0x3a, 0x5f, 0x3a, 0xc6, 0xbd,
  0xf8, 0x5c, 0x81, 0xbd, 0x91, 0xa1, 0x5e, 0x3e, 0x52, 0xe6, 0xf8, 0xbd, 0x70, 0x1c, 0xab, 0xbf,
  0x0c, 0x05, 0x58, 0xbf, 0x48, 0x45, 0x34, 0x3d, 0x7c, 0x4a, 0x9a, 0x3e, 0x76, 0xe6, 0x89, 0xbd,
  0xfb, 0xc4, 0x8a, 0x3e, 0xa2, 0xbe, 0x81, 0x3e, 0x37, 0x03, 0x0a, 0x3e, 0x46, 0xd4, 0x1a, 0xbd,
  0x11, 0xe2, 0x19, 0x3f, 0x9d, 0x33, 0x8d, 0x3e, 0x86, 0xc8, 0x54, 0x3e, 0xb8, 0xd1, 0x20, 0x3e,
  0x58, 0x8e, 0xd6, 0xbe, 0x70, 0x50, 0xe9, 0xbc, 0xe8, 0xf3, 0xec, 0xbe, 0xdd, 0x54, 0x56, 0xbb,
  0x85, 0x8a, 0x80, 0x3e, 0x17, 0x98, 0x17, 0xbf, 0x7d, 0x5f, 0x1f, 0x3f, 0x13, 0x69, 0x91, 0xbc,
  0x4d, 0xf1, 0x2c, 0x3f, 0x54, 0xf6, 0xfb, 0xbd, 0x8b, 0x78, 0x03, 0xbf, 0xe3, 0xe1, 0xfe, 0x3e,
  0x70, 0x96, 0x6b, 0x3e, 0x0d, 0xca, 0x78, 0x3f, 0x7a, 0x81, 0x64, 0x3c, 0x0e, 0x22, 0x95, 0x3f,
  0x39, 0xb7, 0x7f, 0xbd, 0xcb, 0x09, 0xed, 0xbe, 0x00, 0x37, 0x0e, 0x3e, 0xd1, 0x33, 0xdf, 0x3d,
  0x1b, 0x53, 0xf3, 0xbe, 0x43, 0x8f, 0x2b, 0x3d, 0x89, 0xc3, 0x31, 0x3f, 0xcb, 0xd5, 0x5e, 0xbe,
  0x27, 0x1a, 0x40, 0xbe, 0x4b, 0xaa, 0x73, 0x3e, 0xa2, 0x9e, 0xb8, 0x3e, 0x5a, 0xc2, 0xb9, 0x3e,
  0xc5, 0xb3, 0x90, 0xbe, 0x46, 0x1a, 0x08, 0xbf, 0xe1, 0xea, 0xa0, 0xbd, 0x77, 0x15, 0x1a, 0x3d,
  0x56, 0x33, 0x35, 0x3e, 0xdb, 0xc6, 0x12, 0xbf, 0xcc, 0xaa, 0x5a, 0x3f, 0xd0, 0xa1, 0x02, 0xbf,
  0xda, 0xea, 0x35, 0x3e, 0x67, 0x3b, 0x1f, 0xbd, 0x56, 0xf7, 0xff, 0xff, 0x04, 0x00, 0x00, 0x00,
  0x00, 0x08, 0x00, 0x00, 0x77, 0x69, 0x83, 0xbf, 0x82, 0x1f, 0xef, 0xbe, 0x26, 0x6b, 0x52, 0xbf,
  0x3b, 0x99, 0x9a, 0xbf, 0xf4, 0x62, 0xb1, 0x3d, 0x52, 0xbf, 0x4e, 0x3e, 0x97, 0x0b, 0x05, 0xbf,
  0x0b, 0xec, 0x34, 0xbf, 0x67, 0x79, 0x00, 0xbf, 0xb9, 0x3b, 0x07, 0x3f, 0x90, 0x04, 0x45, 0x3e,
  0xf9, 0xfc, 0x96, 0xbe, 0x2d, 0xa4, 0x81, 0xbe, 0x14, 0xfb, 0x28, 0x3f, 0x93, 0xef, 0x7d, 0xbe,
  0x68, 0x45, 0xa6, 0xbe, 0x1c, 0x3b, 0x01, 0xbe, 0x79, 0x62, 0x8f, 0x3e, 0xae, 0xe9, 0x37, 0xbf,
  0x6d, 0x60, 0x32, 0xbf, 0xc3, 0xe7, 0xb6, 0x3d, 0x11, 0x60, 0x60, 0xbe, 0x49, 0x13, 0xcb, 0x3e,
  0xd0, 0x1d, 0x2f, 0x3f, 0x7e, 0xf0, 0x72, 0x3e, 0xba, 0x1e, 0x00, 0x3f, 0x67, 0xf7, 0x9e, 0xbe,
  0xca, 0x40, 0x47, 0xbf, 0x9a, 0x62, 0x98, 0xbf, 0x7c, 0xa5, 0x0f, 0x3f, 0x89, 0xc4, 0xe3, 0xbe,
  0x47, 0x16, 0x9b, 0xbe, 0xc9, 0x59, 0x83, 0x3e, 0x3e, 0xda, 0x1d, 0xbf, 0xb6, 0x99, 0x36, 0x3f,
  0x9f, 0xa2, 0x14, 0x3f, 0xae, 0x96, 0x5f, 0x3e, 0xa9, 0xe6, 0x40, 0x3f, 0xf3, 0x0c, 0xa9, 0xbe,
  0x7a, 0x1c, 0x2c, 0x3f, 0x56, 0x06, 0x25, 0x3e, 0x40, 0x04, 0xc3, 0x3d, 0x77, 0x2d, 0xca, 0x3e,
  0x18, 0xf6, 0x38, 0x3e, 0x4e, 0x2f, 0xff, 0x3d, 0x36, 0xda, 0x2e, 0xbe, 0x3d, 0xfd, 0xcf, 0x3e,
  0xd8, 0x2f, 0x26, 0x3f, 0xc5, 0xcc, 0x69, 0x3f, 0xbc, 0x30, 0x67, 0xbe, 0xd6, 0x96, 0x41, 0x3f,
  0x4d, 0x22, 0x02, 0x3f, 0xa2, 0xee, 0x72, 0x3f, 0xd2, 0x96, 0xe7, 0x3d, 0x92, 0xb6, 0x1e, 0x3e,
  0x12, 0x0a, 0xf8, 0x3e, 0x41, 0xf2, 0x03, 0xc0, 0x30, 0xa0, 0xe7, 0x3e, 0x8d, 0xa5, 0x47, 0x3d,
  0xee, 0x2c, 0xeb, 0xbe, 0x1e, 0x09, 0xfb, 0x3e, 0x8e, 0x5b, 0xff, 0xbb, 0x51, 0x00, 0xf0, 0x3e,
  0x21, 0x0f, 0x7f, 0x3f, 0x74, 0x9f, 0x81, 0xbd, 0x4f, 0xdf, 0x86, 0x3e, 0x5c, 0x3a, 0x0f, 0xbf,
  0x8b, 0x5c, 0xff, 0xbd, 0x03, 0x71, 0x7d, 0xbe, 0x93, 0x38, 0x2d, 0xbf, 0x6d, 0x27, 0x36, 0x3f,
  0x37, 0x13, 0x39, 0xbf, 0x11, 0x57, 0x78, 0x3e, 0xa3, 0xbe, 0x39, 0x3e, 0x20, 0x30, 0x66, 0x3d,
  0x8d, 0x17, 0x4d, 0xbf, 0x02, 0x86, 0x8a, 0x3e, 0x4e, 0x73, 0xa3, 0x3e, 0x9a, 0xd2, 0x83, 0xbe,
  0x23, 0x41, 0xac, 0xbe, 0x02, 0x63, 0xa5, 0xbe, 0xf0, 0xc9, 0x1b, 0xbe, 0xbc, 0x7f, 0xc7, 0xbd,
  0xa7, 0x04, 0x92, 0x3e, 0x18, 0xc5, 0x06, 0xbe, 0xcf, 0xf4, 0xc8, 0xbe, 0xa3, 0x10, 0x38, 0x3e,
  0xa4, 0xfe, 0xc0, 0x3e, 0x65, 0xaa, 0x15, 0xbc, 0xa8, 0x0e, 0x0d, 0xbe, 0xb1, 0xd9, 0xcb, 0xbe,
  0xaa, 0xfe, 0x07, 0x3f, 0x62, 0x77, 0x8e, 0xbf, 0x33, 0x59, 0x8f, 0xbf, 0x6f, 0xd2, 0x59, 0xbe,
  0x33, 0x57, 0x02, 0x3f, 0x43, 0x4e, 0x18, 0x3f, 0x37, 0xd3, 0x52, 0x3e, 0xf9, 0x30, 0x29, 0x3f,
  0x7c, 0x55, 0xa8, 0x3e, 0x26, 0xf8, 0x58, 0x3f, 0x04, 0x50, 0x24, 0xbd, 0x92, 0xcd, 0x13, 0x3e,
  0x6d, 0x8e, 0x08, 0x3f, 0x92, 0xd1, 0x06, 0xc0, 0x00, 0x1e, 0x06, 0x3f, 0xf4, 0x2e, 0xc4, 0xbc,
  0x8c, 0xd2, 0x31, 0xbf, 0x0b, 0xa2, 0x82, 0x3e, 0x94, 0xb7, 0x41, 0xbd, 0xa6, 0x66, 0xf6, 0x3e,
  0x46, 0xef, 0x44, 0x3f, 0xc1, 0x02, 0x2a, 0xbe, 0x14, 0x43, 0x15, 0x3f, 0x44, 0xb0, 0x17, 0xbf,
  0x70, 0x32, 0x0e, 0xbf, 0xe4, 0xfb, 0x66, 0xbe, 0x97, 0x42, 0x85, 0xbe, 0x90, 0x6e, 0x01, 0x3f,
  0xc8, 0xe4, 0xbe, 0x3e, 0x01, 0x51, 0x0a, 0x3f, 0x2a, 0x2c, 0x38, 0x3f, 0xe9, 0x48, 0x6a, 0xbe,
  0xb1, 0xca, 0xa5, 0xbf, 0xec, 0x87, 0x85, 0xbf, 0x7c, 0x6d, 0xbf, 0x3e, 0xe4, 0x60, 0x47, 0x3e,
  0x28, 0x51, 0x08, 0xbf, 0x66, 0xd4, 0x5b, 0x3e, 0x92, 0x35, 0xff, 0xbe, 0x8a, 0x3c, 0x16, 0xbf,
  0xf7, 0x40, 0x0e, 0x3f, 0x42, 0x13, 0xbf, 0xbe, 0x23, 0xf7, 0xc4, 0x3e, 0x0e, 0x57, 0x19, 0xbf,
  0xd9, 0xad, 0xf1, 0x3e, 0x1f, 0xa0, 0xec, 0x3e, 0x84, 0x8a, 0x87, 0xbd, 0xf5, 0xb7, 0x6a, 0xbc,
  0xd4, 0xaa, 0x0e, 0x3f, 0x12, 0x71, 0x20, 0x3f, 0xd3, 0x9b, 0xca, 0x3e, 0xdf, 0xca, 0x0e, 0xbe,
  0x8a, 0x28, 0x98, 0xbe, 0xcd, 0xc1, 0x88, 0xbf, 0x98, 0x45, 0xa3, 0xbe, 0xbe, 0xf1, 0x00, 0x3f,
  0xba, 0xcc, 0x41, 0x3f, 0xbc, 0xa5, 0x13, 0x3f, 0x1b, 0x5f, 0x32, 0xbc, 0x06, 0xc3, 0x16, 0x3f,
  0xc6, 0x5f, 0xa0, 0x3e, 0x95, 0x34, 0x5f, 0xbf, 0x72, 0x82, 0x00, 0x3e, 0xe4, 0x07, 0xd9, 0x3e,
  0x68, 0xc6, 0xe3, 0xbe, 0xf9, 0x12, 0x82, 0x3e, 0xe3, 0x0d, 0xd8, 0xbc, 0x30, 0x59, 0xe1, 0xbe,
  0x0a, 0xb4, 0x89, 0x3e, 0xa5, 0x1c, 0x12, 0xbf, 0x65, 0x51, 0xc3, 0x3e, 0x30, 0xf1, 0x8e, 0xbe,
  0x23, 0x15, 0xc5, 0xbe, 0x35, 0xaf, 0x87, 0x3c, 0xd3, 0x21, 0x8e, 0xbf, 0x7d, 0x6d, 0x34, 0x3f,
  0xc6, 0xc5, 0xf8, 0x3c, 0x80, 0x66, 0x10, 0x3b, 0xa0, 0x9b, 0x15, 0x3f, 0x91, 0x4b, 0xed, 0xbe,
  0x20, 0xb3, 0xa9, 0xbe, 0x9f, 0x8f, 0x0d, 0xbf, 0x5f, 0xda, 0x14, 0xbe, 0xfc, 0xdf, 0x16, 0x3f,
  0x23, 0xf4, 0x39, 0xbf, 0x19, 0x03, 0x63, 0xbd, 0x09, 0xd0, 0x30, 0xbf, 0x73, 0x63, 0x39, 0x3f,
  0x31, 0x42, 0x1a, 0x3f, 0x63, 0x25, 0x69, 0x3d, 0xb9, 0x46, 0x0a, 0x3f, 0x1d, 0xe7, 0xef, 0xbd,
  0xe8, 0x7d, 0x1e, 0x3f, 0x51, 0x9c, 0xe2, 0x3d, 0x84, 0x05, 0x48, 0x3e, 0x4f, 0xff, 0xbb, 0xbd,
  0xe8, 0xa9, 0xee, 0x3e, 0x11, 0x3b, 0xf1, 0x3e, 0x5a, 0x42, 0xfd, 0xbd, 0xe4, 0x53, 0xf6, 0x3e,
  0x21, 0x04, 0x29, 0x3f, 0xe3, 0xbc, 0xc5, 0x3e, 0xfe, 0x62, 0x87, 0xbe, 0xde, 0xbb, 0x0d, 0x3f,
  0x7e, 0x65, 0xe2, 0x3e, 0x19, 0x18, 0x9b, 0xbc, 0x74, 0xc4, 0x0d, 0x3f, 0x94, 0x22, 0x03, 0xbe,
  0xfb, 0xd9, 0x29, 0x3e, 0xca, 0xe5, 0x0a, 0xbe, 0x44, 0x92, 0xd0, 0x3e, 0x87, 0x83, 0x5a, 0x3c,
  0xdd, 0xbb, 0x32, 0x3f, 0xe5, 0xa1, 0xc5, 0x3e, 0xf6, 0x42, 0xd1, 0xbc, 0xcf, 0x16, 0x1b, 0x3f,
  0x44, 0x1e, 0x3a, 0x3f, 0xfa, 0x46, 0x2f, 0xbf, 0x4e, 0x9c, 0x01, 0xbf, 0x7b, 0x98, 0x01, 0x3e,
  0x52, 0xb4, 0xd2, 0x3e, 0x6e, 0x57, 0xd1, 0xbc, 0xe1, 0x6e, 0xb8, 0x3f, 0x75, 0xbd, 0x66, 0xbc,
  0xb9, 0x7e, 0x8b, 0x3e, 0xa3, 0x6e, 0x8b, 0x3d, 0x5b, 0x80, 0xcc, 0x3e, 0xa8, 0x71, 0x6a, 0x3b,
  0xdf, 0xd2, 0x41, 0x3f, 0xb5, 0x46, 0xab, 0x3e, 0x84, 0x21, 0x75, 0x3d, 0x64, 0x32, 0xc4, 0x3e,
  0x8a, 0xc5, 0x1e, 0x3f, 0x7a, 0x09, 0x4c, 0x3e, 0x29, 0x6b, 0x3b, 0xbe, 0x52, 0xba, 0x01, 0x3f,
  0xb3, 0x5a, 0xb3, 0x3b, 0xac, 0xa2, 0xfb, 0x3e, 0x48, 0x8e, 0xee, 0x3e, 0x0a, 0x66, 0xc3, 0xbd,
  0x21, 0x46, 0xfb, 0x3e, 0x99, 0x0b, 0x33, 0xbe, 0x9a, 0x38, 0x8c, 0x3e, 0xb3, 0x90, 0x8d, 0x3e,
  0xf8, 0x79, 0x33, 0x3f, 0x47, 0x9e, 0x27, 0x3e, 0xf4, 0xea, 0xcc, 0xbd, 0xf7, 0xd4, 0xcb, 0x3e,
  0x6b, 0x72, 0xc4, 0x3e, 0x48, 0x18, 0xd0, 0x3e, 0x93, 0x58, 0x10, 0xbf, 0xfa, 0xb9, 0x69, 0x3e,
  0x48, 0x78, 0x56, 0xbe, 0xfa, 0x7c, 0xcf, 0x3e, 0x5d, 0x6e, 0xa2, 0x3f, 0x34, 0x24, 0xc0, 0xbe,
  0xd1, 0xe4, 0xdb, 0xbe, 0xf9, 0xff, 0xc9, 0x3e, 0x69, 0xa4, 0x58, 0x3e, 0x31, 0x10, 0xb6, 0x3e,
  0x7a, 0x2c, 0x3f, 0x3f, 0x96, 0xb6, 0x30, 0x3e, 0x4d, 0x5e, 0x98, 0xbe, 0x06, 0xd7, 0x5a, 0x3e,
  0x3e, 0x86, 0x28, 0x3e, 0xb5, 0x9a, 0x0e, 0x3f, 0x9c, 0xdd, 0xb4, 0xbe, 0x63, 0xa9, 0xd1, 0x3e,
  0x4d, 0x9c, 0x06, 0x3f, 0xc4, 0x2c, 0x5b, 0x3e, 0x11, 0x67, 0xcb, 0x3e, 0x43, 0x84, 0x0a, 0xbe,
  0xd2, 0xe6, 0x14, 0x3e, 0x8d, 0xbe, 0x8e, 0xbe, 0xb0, 0x3a, 0x46, 0x3e, 0xf0, 0x51, 0x83, 0xbd,
  0xca, 0x7e, 0x73, 0x3e, 0x90, 0xac, 0xc5, 0x3e, 0x2e, 0x12, 0x6f, 0x3e, 0x17, 0x26, 0x02, 0x3e,
  0x36, 0xbb, 0x38, 0x3e, 0x32, 0x87, 0x46, 0x3f, 0xae, 0x71, 0x93, 0xbe, 0x79, 0xe4, 0x18, 0x3f,
  0xb9, 0xb8, 0x67, 0x3f, 0x98, 0xae, 0x02, 0x3f, 0x83, 0xd8, 0xd8, 0x3e, 0x55, 0xc8, 0xa3, 0x3e,
  0xe8, 0x42, 0x3a, 0x3e, 0x2f, 0x5c, 0xc5, 0xbf, 0xa9, 0x97, 0xaf, 0x3e, 0x98, 0xe8, 0x06, 0x3f,
  0x3f, 0xee, 0xcb, 0xbd, 0xa1, 0xdd, 0xcd, 0x3d, 0x4e, 0x1f, 0xa6, 0xbe, 0xfe, 0xe0, 0x03, 0x3f,
  0xff, 0x7b, 0x55, 0x3f, 0xef, 0xde, 0x45, 0xbd, 0x47, 0x24, 0x45, 0x3f, 0x3f, 0xb4, 0x25, 0xbe,
  0x13, 0x41, 0x8e, 0x3e, 0x9e, 0xe5, 0xc7, 0xbd, 0x8b, 0x3e, 0x08, 0xbf, 0x78, 0x1a, 0x30, 0x3f,
  0x7d, 0xf7, 0x42, 0x3e, 0xd2, 0xd0, 0xfc, 0x3d, 0x0f, 0x3c, 0x01, 0x3e, 0xc9, 0x1b, 0x64, 0xbf,
  0x8b, 0xc6, 0x78, 0xbe, 0x29, 0xaf, 0x0d, 0xbf, 0x19, 0x06, 0x19, 0xbe, 0xf3, 0x2e, 0x88, 0x3d,
  0xd2, 0x94, 0x05, 0xbf, 0x2f, 0x80, 0x92, 0x3e, 0xbf, 0x67, 0xe1, 0xbe, 0x2b, 0x84, 0x8b, 0xbe,
  0x07, 0xef, 0xc8, 0x3e, 0x54, 0x8c, 0xe0, 0x3e, 0x72, 0x28, 0x93, 0x3e, 0xac, 0x3d, 0x31, 0xbf,
  0x8b, 0xe9, 0xd0, 0x3e, 0xbf, 0x0a, 0xd0, 0x3d, 0x91, 0xb0, 0x28, 0x3e, 0x40, 0x35, 0xe4, 0x3e,
  0xa0, 0x08, 0xf6, 0x3e, 0xf2, 0xd4, 0x89, 0x3e, 0x0e, 0x85, 0xcf, 0x3e, 0xbe, 0xc7, 0x45, 0x3f,
  0xee, 0x53, 0x75, 0x3e, 0x65, 0x80, 0xd6, 0xbe, 0x18, 0xa7, 0x1f, 0x3f, 0x0b, 0x91, 0xb6, 0xbe,
  0xeb, 0xf5, 0x00, 0x3f, 0x74, 0x42, 0xda, 0xbe, 0x31, 0x5d, 0x3b, 0xbf, 0x3c, 0xf1, 0xbd, 0x3e,
  0x0d, 0x7e, 0x81, 0xbf, 0x22, 0xaa, 0x98, 0x3e, 0xb1, 0xae, 0xe5, 0x3e, 0x9c, 0xe5, 0x07, 0xbe,
  0x04, 0x1e, 0x40, 0xbf, 0x88, 0xb8, 0x4a, 0x3e, 0x87, 0x23, 0x4b, 0x3d, 0x60, 0x7f, 0x06, 0x3e,
  0xed, 0xb8, 0xec, 0xbe, 0x24, 0xbd, 0x4b, 0x3e, 0x3d, 0x62, 0x37, 0x3f, 0xe1, 0x70, 0xc1, 0xbc,
  0x2e, 0xd2, 0xf8, 0xbc, 0xb3, 0x57, 0x81, 0xbd, 0x67, 0x1d, 0x68, 0xbf, 0xef, 0xa3, 0xf4, 0x3e,
  0xc3, 0x66, 0x43, 0x3d, 0x31, 0x75, 0x9b, 0x3e, 0xcd, 0x41, 0xa6, 0xbc, 0x13, 0x1b, 0xc6, 0xbe,
  0x65, 0x17, 0xaa, 0xbe, 0x7d, 0x14, 0xc9, 0x3d, 0x17, 0xae, 0x77, 0xbe, 0xf5, 0x26, 0x1f, 0xbd,
  0x6f, 0x05, 0xa2, 0xbe, 0x8f, 0xf0, 0x00, 0xbe, 0x58, 0x8d, 0x5b, 0x3e, 0xbb, 0x80, 0x3d, 0xbe,
  0xce, 0x57, 0x84, 0xbf, 0x56, 0x09, 0x2e, 0xbf, 0x6f, 0x38, 0xc9, 0x3d, 0xd5, 0x2e, 0x04, 0x3f,
  0xee, 0xf4, 0x54, 0x3e, 0xda, 0xb2, 0xdb, 0x3e, 0x18, 0x9f, 0x6b, 0xbe, 0xf9, 0x50, 0x88, 0xbe,
  0xfb, 0x94, 0x39, 0xbf, 0xd7, 0xc5, 0x49, 0xbf, 0x1e, 0xa9, 0x18, 0x3f, 0xe4, 0x71, 0x7d, 0xbe,
  0x95, 0x27, 0x17, 0x3d, 0xe7, 0x4b, 0xd3, 0xbe, 0xaa, 0x13, 0x9e, 0x3e, 0xfd, 0x33, 0x31, 0xbe,
  0x31, 0xec, 0xc5, 0xbd, 0x06, 0xd5, 0x09, 0xbf, 0x3c, 0xd3, 0x1a, 0xbf, 0x5f, 0x11, 0xda, 0x3e,
  0x14, 0x47, 0xbd, 0xbe, 0x9e, 0x43, 0x89, 0x3e, 0x2a, 0xca, 0x9d, 0x3e, 0xdd, 0xa8, 0x1a, 0xbf,
  0xc5, 0x0f, 0x23, 0xbf, 0xec, 0x2b, 0x1d, 0xbf, 0x26, 0xb6, 0xb3, 0x3e, 0x33, 0x41, 0xf2, 0x3e,
  0x4e, 0x13, 0x78, 0xbe, 0xd6, 0x4a, 0xd5, 0xbe, 0xea, 0x63, 0x55, 0x3e, 0x9c, 0xbe, 0x13, 0xbf,
  0x76, 0x8b, 0x9e, 0xbd, 0x0e, 0x9f, 0x14, 0xbf, 0xf6, 0xb0, 0x1a, 0xbf, 0x6b, 0x37, 0x0b, 0x3f,
  0x32, 0x32, 0xf5, 0xbd, 0xe8, 0x2d, 0xb7, 0x3e, 0xf2, 0xf6, 0xf7, 0x3e, 0xaa, 0xe1, 0x1c, 0xbe,
  0x53, 0x86, 0x90, 0xbf, 0x67, 0xe9, 0x84, 0xbf, 0xec, 0x41, 0xb7, 0x3e, 0x61, 0x18, 0x65, 0x3e,
  0x86, 0x8e, 0xf6, 0xbe, 0xd4, 0x0a, 0x26, 0x3f, 0xa4, 0x1f, 0x20, 0xbf, 0x7a, 0x75, 0xf4, 0x3e,
  0x7a, 0xf9, 0xf9, 0x3e, 0x6a, 0x4b, 0x07, 0xbf, 0x2b, 0x6d, 0xc4, 0x3f, 0x20, 0x0c, 0x74, 0x3d,
  0xea, 0x51, 0x9a, 0x3e, 0x16, 0x7b, 0x87, 0x3e, 0xa1, 0xac, 0xc6, 0x3d, 0xc3, 0x0f, 0x6d, 0x3e,
  0x80, 0x4c, 0xa1, 0x3f, 0xd2, 0x0d, 0xc4, 0xbc, 0x00, 0xfb, 0xfa, 0xbe, 0xd4, 0x6b, 0x03, 0x3f,
  0xc1, 0x7b, 0x3c, 0x3e, 0xd1, 0x5b, 0xac, 0x3e, 0x15, 0x43, 0x89, 0xbd, 0x83, 0xb4, 0x00, 0xc0,
  0x26, 0xaa, 0x8e, 0xbe, 0xb4, 0xd5, 0xed, 0x3e, 0x6e, 0x25, 0xe9, 0x3e, 0x13, 0xd5, 0xa5, 0xbf,
  0x43, 0xa3, 0x9a, 0x3e, 0xb3, 0xf9, 0x1e, 0x3f, 0xb6, 0xc8, 0xcc, 0xbf, 0xd3, 0x86, 0xcb, 0xbe,
  0x5b, 0x4d, 0xa6, 0x3e, 0xeb, 0xef, 0xa8, 0xbe, 0xb7, 0xb9, 0xd3, 0x3e, 0xe1, 0xb6, 0x1d, 0xbf,
  0x69, 0xb3, 0xb5, 0xbf, 0xf8, 0xc9, 0x57, 0xbe, 0x7a, 0x5e, 0x3c, 0x3e, 0x73, 0x9c, 0x68, 0xbe,
  0x61, 0x6f, 0x1f, 0xbf, 0x45, 0x23, 0x42, 0xbe, 0xdf, 0xc1, 0x37, 0xbf, 0xfb, 0x10, 0xae, 0x3e,
  0x77, 0xfb, 0x3b, 0xbe, 0x57, 0xd1, 0xdd, 0x3e, 0xce, 0x5b, 0x94, 0x3d, 0xb2, 0xdf, 0x54, 0xbe,
  0xa0, 0x17, 0x4a, 0xbf, 0x04, 0xd9, 0xb9, 0x3b, 0xc3, 0xe9, 0x05, 0x3f, 0x85, 0x70, 0xc7, 0x3d,
  0xcf, 0xa5, 0x02, 0xbd, 0xbe, 0x4f, 0x81, 0x3d, 0x41, 0x52, 0x1a, 0x3f, 0x5f, 0x6a, 0x2d, 0xbe,
  0xbc, 0x1b, 0x37, 0x3f, 0x2b, 0xb1, 0xa4, 0x3e, 0xa3, 0x35, 0x30, 0xbf, 0x82, 0x6f, 0x0b, 0xbe,
  0x95, 0x40, 0x8b, 0xbf, 0xa2, 0x20, 0x96, 0x3d, 0xac, 0xb1, 0xd0, 0x3e, 0xb6, 0xa0, 0x93, 0xbf,
  0xa2, 0xab, 0x85, 0x3e, 0xe5, 0xed, 0xac, 0x3e, 0x0a, 0x58, 0x48, 0xbf, 0x1c, 0x54, 0x23, 0xbd,
  0x51, 0xe1, 0x41, 0xbe, 0xb6, 0x3c, 0x4e, 0x3e, 0xf4, 0xb0, 0xb8, 0xbd, 0xfa, 0xae, 0x1f, 0xbf,
  0xa0, 0x43, 0xb0, 0xbe, 0x6b, 0x7e, 0xbb, 0xbb, 0x78, 0xc6, 0x7d, 0xbf, 0xef, 0xb5, 0x1b, 0x3e,
  0xaa, 0xdc, 0x09, 0x3f, 0xf4, 0x8b, 0xe0, 0x3d, 0xb5, 0xfb, 0x0a, 0xbf, 0xfb, 0x2b, 0xe5, 0x3d,
  0xe3, 0xb1, 0x3f, 0x3e, 0xa6, 0x13, 0x9d, 0xbf, 0x45, 0xd6, 0xf1, 0xbe, 0x10, 0x31, 0x28, 0xbf,
  0x0d, 0xf7, 0x65, 0x3c, 0x12, 0x33, 0xd4, 0xbd, 0xed, 0xb2, 0x10, 0x3f, 0x7c, 0x05, 0xc1, 0xbe,
  0x1a, 0xe4, 0xd1, 0xbe, 0x3b, 0xd6, 0x03, 0x3e, 0xbc, 0x83, 0x18, 0xbf, 0xf3, 0x6a, 0xcd, 0x3e,
  0xb2, 0x7e, 0x5a, 0xbe, 0xd1, 0xd8, 0x07, 0x3f, 0xf4, 0x07, 0x84, 0x3d, 0xab, 0x96, 0x8f, 0xbe,
  0x78, 0x24, 0xfe, 0xbe, 0xfb, 0x5e, 0x16, 0x3e, 0xbb, 0xb5, 0x49, 0x3e, 0xf9, 0x6b, 0xd6, 0xbd,
  0x32, 0xbc, 0x1b, 0xbf, 0x2f, 0xee, 0x9d, 0xbf, 0xe7, 0x69, 0x51, 0x3f, 0xaf, 0x79, 0x8f, 0x3f,
  0xec, 0xa5, 0x97, 0xbe, 0xd8, 0x83, 0xc4, 0x3e, 0xa4, 0x6f, 0xd2, 0xbf, 0x92, 0x85, 0x25, 0xbf,
  0x5b, 0x25, 0x64, 0xbf, 0x95, 0xbc, 0xb6, 0xbc, 0xe3, 0xd2, 0x27, 0xbf, 0xe6, 0x7c, 0xb3, 0xbd,
  0xd0, 0x1f, 0xe4, 0x3d, 0x7b, 0x58, 0x38, 0x3f, 0x02, 0x44, 0xf3, 0xbe, 0xac, 0xd0, 0x81, 0x3f,
  0x0d, 0x7a, 0xe5, 0xbf, 0x62, 0xff, 0xff, 0xff, 0x04, 0x00, 0x00, 0x00, 0x80, 0x00, 0x00, 0x00,
  0x5d, 0x8a, 0x10, 0x40, 0x50, 0x28, 0xb4, 0x3f, 0xd1, 0x8e, 0x8f, 0xbf, 0x14, 0x4c, 0x94, 0xbf,
  0x6c, 0xe7, 0x5f, 0x3f, 0xff, 0x92, 0xba, 0xbf, 0x6e, 0x34, 0x9e, 0xbf, 0xb9, 0x1e, 0xb2, 0x3f,
  0x30, 0x64, 0x87, 0xbf, 0xa7, 0xbe, 0xc4, 0xbf, 0x48, 0x01, 0xc9, 0x3f, 0xb3, 0xec, 0x89, 0xbf,
  0x99, 0x1e, 0x39, 0xbf, 0x22, 0x81, 0xbc, 0xbf, 0x67, 0xeb, 0x59, 0xbf, 0xb8, 0xcc, 0xa2, 0xbf,
  0x9d, 0xf8, 0x82, 0xbf, 0xd4, 0x10, 0xb0, 0xbf, 0x06, 0x88, 0x90, 0x3f, 0xed, 0xa3, 0x90, 0xbf,
  0x7e, 0x92, 0xc3, 0x3f, 0x49, 0x53, 0x5d, 0x3f, 0x75, 0x56, 0xcc, 0x3f, 0x53, 0xa9, 0xa7, 0x3f,
  0x41, 0x73, 0xd1, 0x3f, 0xb6, 0x8a, 0xd9, 0xbf, 0xa6, 0x53, 0x10, 0x40, 0xf5, 0xb5, 0x84, 0x3f,
  0x2f, 0x41, 0xc7, 0x3f, 0xbe, 0x36, 0xa7, 0x3f, 0x82, 0xa0, 0x5a, 0x3f, 0x7d, 0xe4, 0xdb, 0x3f,
  0xee, 0xff, 0xff, 0xff, 0x04, 0x00, 0x00, 0x00, 0x04, 0x00, 0x00, 0x00, 0x72, 0xea, 0xfa, 0x3e,
  0x00, 0x00, 0x06, 0x00, 0x08, 0x00, 0x04, 0x00, 0x06, 0x00, 0x00, 0x00, 0x04, 0x00, 0x00, 0x00,
  0x80, 0x00, 0x00, 0x00, 0xe7, 0xa0, 0x4c, 0x3e, 0x0f, 0x67, 0x03, 0x3f, 0x9d, 0xd5, 0xc5, 0xbe,
  0x50, 0x84, 0xc7, 0xbe, 0x0e, 0x5a, 0x31, 0x3f, 0xd4, 0xba, 0xb3, 0x3e, 0x02, 0x16, 0x97, 0xbd,
  0x9e, 0x93, 0xd0, 0x3e, 0xc3, 0x48, 0x85, 0xbe, 0xf4, 0x7a, 0xdb, 0xbe, 0x3c, 0xf3, 0x1c, 0x3f,
  0x01, 0x56, 0xec, 0xbe, 0x1e, 0x15, 0xd5, 0xbe, 0x56, 0xbd, 0xf2, 0xbe, 0x27, 0xcc, 0xef, 0xbe,
  0xf2, 0x67, 0xdf, 0xbe, 0x42, 0xf9, 0xb5, 0xbe, 0xc7, 0x1b, 0xc7, 0xbd, 0x42, 0xd4, 0x3a, 0x3f,
  0x49, 0x58, 0xc1, 0xbe, 0x4f, 0x15, 0x29, 0x3f, 0xc3, 0x1f, 0x43, 0x3f, 0xc2, 0x24, 0x3f, 0x3f,
  0xf6, 0x1f, 0x59, 0x3f, 0x37, 0x6b, 0x36, 0x3f, 0x93, 0x50, 0x16, 0xbf, 0x5c, 0xc8, 0xf8, 0x3e,
  0x9d, 0x1c, 0x1d, 0x3f, 0x4b, 0x5c, 0x0c, 0x3e, 0x87, 0x03, 0x0e, 0xbe, 0xe8, 0x41, 0x26, 0x3f,
  0x09, 0xb7, 0x14, 0x3f, 0x30, 0xfa, 0xff, 0xff, 0x34, 0xfa, 0xff, 0xff, 0x0f, 0x00, 0x00, 0x00,
  0x4d, 0x4c, 0x49, 0x52, 0x20, 0x43, 0x6f, 0x6e, 0x76, 0x65, 0x72, 0x74, 0x65, 0x64, 0x2e, 0x00,
  0x01, 0x00, 0x00, 0x00, 0x14, 0x00, 0x00, 0x00, 0x00, 0x00, 0x0e, 0x00, 0x18, 0x00, 0x14, 0x00,
  0x10, 0x00, 0x0c, 0x00, 0x08, 0x00, 0x04, 0x00, 0x0e, 0x00, 0x00, 0x00, 0x14, 0x00, 0x00, 0x00,
  0x1c, 0x00, 0x00, 0x00, 0x18, 0x01, 0x00, 0x00, 0x1c, 0x01, 0x00, 0x00, 0x20, 0x01, 0x00, 0x00,
  0x04, 0x00, 0x00, 0x00, 0x6d, 0x61, 0x69, 0x6e, 0x00, 0x00, 0x00, 0x00, 0x04, 0x00, 0x00, 0x00,
  0xc0, 0x00, 0x00, 0x00, 0x78, 0x00, 0x00, 0x00, 0x34, 0x00, 0x00, 0x00, 0x10, 0x00, 0x00, 0x00,
  0x00, 0x00, 0x0a, 0x00, 0x10, 0x00, 0x0c, 0x00, 0x08, 0x00, 0x04, 0x00, 0x0a, 0x00, 0x00, 0x00,
  0x0c, 0x00, 0x00, 0x00, 0x10, 0x00, 0x00, 0x00, 0x01, 0x00, 0x00, 0x00, 0x01, 0x00, 0x00, 0x00,
  0x0a, 0x00, 0x00, 0x00, 0x01, 0x00, 0x00, 0x00, 0x09, 0x00, 0x00, 0x00, 0xce, 0xff, 0xff, 0xff,
  0x10, 0x00, 0x00, 0x00, 0x00, 0x00, 0x00, 0x08, 0x0c, 0x00, 0x00, 0x00, 0x10, 0x00, 0x00, 0x00,
  0xdc, 0xfa, 0xff, 0xff, 0x01, 0x00, 0x00, 0x00, 0x09, 0x00, 0x00, 0x00, 0x03, 0x00, 0x00, 0x00,
  0x08, 0x00, 0x00, 0x00, 0x03, 0x00, 0x00, 0x00, 0x02, 0x00, 0x00, 0x00, 0x00, 0x00, 0x0e, 0x00,
  0x14, 0x00, 0x00, 0x00, 0x10, 0x00, 0x0c, 0x00, 0x0b, 0x00, 0x04, 0x00, 0x0e, 0x00, 0x00, 0x00,
  0x10, 0x00, 0x00, 0x00, 0x00, 0x00, 0x00, 0x08, 0x10, 0x00, 0x00, 0x00, 0x14, 0x00, 0x00, 0x00,
  0xba, 0xff, 0xff, 0xff, 0x00, 0x00, 0x00, 0x01, 0x01, 0x00, 0x00, 0x00, 0x08, 0x00, 0x00, 0x00,
  0x03, 0x00, 0x00, 0x00, 0x07, 0x00, 0x00, 0x00, 0x04, 0x00, 0x00, 0x00, 0x01, 0x00, 0x00, 0x00,
  0x00, 0x00, 0x0e, 0x00, 0x16, 0x00, 0x00, 0x00, 0x10, 0x00, 0x0c, 0x00, 0x0b, 0x00, 0x04, 0x00,
  0x0e, 0x00, 0x00, 0x00, 0x18, 0x00, 0x00, 0x00, 0x00, 0x00, 0x00, 0x08, 0x18, 0x00, 0x00, 0x00,
  0x1c, 0x00, 0x00, 0x00, 0x00, 0x00, 0x06, 0x00, 0x08, 0x00, 0x07, 0x00, 0x06, 0x00, 0x00, 0x00,
  0x00, 0x00, 0x00, 0x01, 0x01, 0x00, 0x00, 0x00, 0x07, 0x00, 0x00, 0x00, 0x03, 0x00, 0x00, 0x00,
  0x00, 0x00, 0x00, 0x00, 0x05, 0x00, 0x00, 0x00, 0x06, 0x00, 0x00, 0x00, 0x01, 0x00, 0x00, 0x00,
  0x0a, 0x00, 0x00, 0x00, 0x01, 0x00, 0x00, 0x00, 0x00, 0x00, 0x00, 0x00, 0x0b, 0x00, 0x00, 0x00,
  0x3c, 0x04, 0x00, 0x00, 0xbc, 0x03, 0x00, 0x00, 0x5c, 0x03, 0x00, 0x00, 0x0c, 0x03, 0x00, 0x00,
  0xbc, 0x02, 0x00, 0x00, 0x70, 0x02, 0x00, 0x00, 0x0c, 0x02, 0x00, 0x00, 0x78, 0x01, 0x00, 0x00,
  0xdc, 0x00, 0x00, 0x00, 0x60, 0x00, 0x00, 0x00, 0x04, 0x00, 0x00, 0x00, 0x06, 0xfc, 0xff, 0xff,
  0x00, 0x00, 0x00, 0x01, 0x14, 0x00, 0x00, 0x00, 0x1c, 0x00, 0x00, 0x00, 0x1c, 0x00, 0x00, 0x00,
  0x0b, 0x00, 0x00, 0x00, 0x34, 0x00, 0x00, 0x00, 0x02, 0x00, 0x00, 0x00, 0xff, 0xff, 0xff, 0xff,
  0x01, 0x00, 0x00, 0x00, 0xf0, 0xfb, 0xff, 0xff, 0x1b, 0x00, 0x00, 0x00, 0x53, 0x74, 0x61, 0x74,
  0x65, 0x66, 0x75, 0x6c, 0x50, 0x61, 0x72, 0x74, 0x69, 0x74, 0x69, 0x6f, 0x6e, 0x65, 0x64, 0x43,
  0x61, 0x6c, 0x6c, 0x5f, 0x31, 0x3a, 0x30, 0x00, 0x02, 0x00, 0x00, 0x00, 0x01, 0x00, 0x00, 0x00,
  0x01, 0x00, 0x00, 0x00, 0x5e, 0xfc, 0xff, 0xff, 0x00, 0x00, 0x00, 0x01, 0x14, 0x00, 0x00, 0x00,
  0x1c, 0x00, 0x00, 0x00, 0x1c, 0x00, 0x00, 0x00, 0x0a, 0x00, 0x00, 0x00, 0x54, 0x00, 0x00, 0x00,
  0x02, 0x00, 0x00, 0x00, 0xff, 0xff, 0xff, 0xff, 0x01, 0x00, 0x00, 0x00, 0x48, 0xfc, 0xff, 0xff,
  0x38, 0x00, 0x00, 0x00, 0x73, 0x65, 0x71, 0x75, 0x65, 0x6e, 0x74, 0x69, 0x61, 0x6c, 0x5f, 0x31,
  0x2f, 0x64, 0x65, 0x6e, 0x73, 0x65, 0x5f, 0x32, 0x5f, 0x31, 0x2f, 0x4d, 0x61, 0x74, 0x4d, 0x75,
  0x6c, 0x3b, 0x73, 0x65, 0x71, 0x75, 0x65, 0x6e, 0x74, 0x69, 0x61, 0x6c, 0x5f, 0x31, 0x2f, 0x64,
  0x65, 0x6e, 0x73, 0x65, 0x5f, 0x32, 0x5f, 0x31, 0x2f, 0x41, 0x64, 0x64, 0x00, 0x00, 0x00, 0x00,
  0x02, 0x00, 0x00, 0x00, 0x01, 0x00, 0x00, 0x00, 0x01, 0x00, 0x00, 0x00, 0xd6, 0xfc, 0xff, 0xff,
  0x00, 0x00, 0x00, 0x01, 0x14, 0x00, 0x00, 0x00, 0x1c, 0x00, 0x00, 0x00, 0x1c, 0x00, 0x00, 0x00,
  0x09, 0x00, 0x00, 0x00, 0x74, 0x00, 0x00, 0x00, 0x02, 0x00, 0x00, 0x00, 0xff, 0xff, 0xff, 0xff,
  0x20, 0x00, 0x00, 0x00, 0xc0, 0xfc, 0xff, 0xff, 0x58, 0x00, 0x00, 0x00, 0x73, 0x65, 0x71, 0x75,
  0x65, 0x6e, 0x74, 0x69, 0x61, 0x6c, 0x5f, 0x31, 0x2f, 0x64, 0x65, 0x6e, 0x73, 0x65, 0x5f, 0x31,
  0x5f, 0x32, 0x2f, 0x4d, 0x61, 0x74, 0x4d, 0x75, 0x6c, 0x3b, 0x73, 0x65, 0x71, 0x75, 0x65, 0x6e,
  0x74, 0x69, 0x61, 0x6c, 0x5f, 0x31, 0x2f, 0x64, 0x65, 0x6e, 0x73, 0x65, 0x5f, 0x31, 0x5f, 0x32,
  0x2f, 0x52, 0x65, 0x6c, 0x75, 0x3b, 0x73, 0x65, 0x71, 0x75, 0x65, 0x6e, 0x74, 0x69, 0x61, 0x6c,
  0x5f, 0x31, 0x2f, 0x64, 0x65, 0x6e, 0x73, 0x65, 0x5f, 0x31, 0x5f, 0x32, 0x2f, 0x42, 0x69, 0x61,
  0x73, 0x41, 0x64, 0x64, 0x00, 0x00, 0x00, 0x00, 0x02, 0x00, 0x00, 0x00, 0x01, 0x00, 0x00, 0x00,
  0x20, 0x00, 0x00, 0x00, 0x6e, 0xfd, 0xff, 0xff, 0x00, 0x00, 0x00, 0x01, 0x14, 0x00, 0x00, 0x00,
  0x1c, 0x00, 0x00, 0x00, 0x1c, 0x00, 0x00, 0x00, 0x08, 0x00, 0x00, 0x00, 0x6c, 0x00, 0x00, 0x00,
  0x02, 0x00, 0x00, 0x00, 0xff, 0xff, 0xff, 0xff, 0x10, 0x00, 0x00, 0x00, 0x58, 0xfd, 0xff, 0xff,
  0x52, 0x00, 0x00, 0x00, 0x73, 0x65, 0x71, 0x75, 0x65, 0x6e, 0x74, 0x69, 0x61, 0x6c, 0x5f, 0x31,
  0x2f, 0x64, 0x65, 0x6e, 0x73, 0x65, 0x5f, 0x31, 0x2f, 0x4d, 0x61, 0x74, 0x4d, 0x75, 0x6c, 0x3b,
  0x73, 0x65, 0x71, 0x75, 0x65, 0x6e, 0x74, 0x69, 0x61, 0x6c, 0x5f, 0x31, 0x2f, 0x64, 0x65, 0x6e,
  0x73, 0x65, 0x5f, 0x31, 0x2f, 0x52, 0x65, 0x6c, 0x75, 0x3b, 0x73, 0x65, 0x71, 0x75, 0x65, 0x6e,
  0x74, 0x69, 0x61, 0x6c, 0x5f, 0x31, 0x2f, 0x64, 0x65, 0x6e, 0x73, 0x65, 0x5f, 0x31, 0x2f, 0x42,
  0x69, 0x61, 0x73, 0x41, 0x64, 0x64, 0x00, 0x00, 0x02, 0x00, 0x00, 0x00, 0x01, 0x00, 0x00, 0x00,
  0x10, 0x00, 0x00, 0x00, 0x7a, 0xfe, 0xff, 0xff, 0x00, 0x00, 0x00, 0x01, 0x10, 0x00, 0x00, 0x00,
  0x10, 0x00, 0x00, 0x00, 0x07, 0x00, 0x00, 0x00, 0x44, 0x00, 0x00, 0x00, 0xd8, 0xfd, 0xff, 0xff,
  0x36, 0x00, 0x00, 0x00, 0x73, 0x65, 0x71, 0x75, 0x65, 0x6e, 0x74, 0x69, 0x61, 0x6c, 0x5f, 0x31,
  0x2f, 0x64, 0x65, 0x6e, 0x73, 0x65, 0x5f, 0x31, 0x2f, 0x52, 0x65, 0x6c, 0x75, 0x3b, 0x73, 0x65,
  0x71, 0x75, 0x65, 0x6e, 0x74, 0x69, 0x61, 0x6c, 0x5f, 0x31, 0x2f, 0x64, 0x65, 0x6e, 0x73, 0x65,
  0x5f, 0x31, 0x2f, 0x42, 0x69, 0x61, 0x73, 0x41, 0x64, 0x64, 0x00, 0x00, 0x01, 0x00, 0x00, 0x00,
  0x10, 0x00, 0x00, 0x00, 0xda, 0xfe, 0xff, 0xff, 0x00, 0x00, 0x00, 0x01, 0x10, 0x00, 0x00, 0x00,
  0x10, 0x00, 0x00, 0x00, 0x06, 0x00, 0x00, 0x00, 0x28, 0x00, 0x00, 0x00, 0x38, 0xfe, 0xff, 0xff,
  0x1b, 0x00, 0x00, 0x00, 0x73, 0x65, 0x71, 0x75, 0x65, 0x6e, 0x74, 0x69, 0x61, 0x6c, 0x5f, 0x31,
  0x2f, 0x64, 0x65, 0x6e, 0x73, 0x65, 0x5f, 0x31, 0x2f, 0x4d, 0x61, 0x74, 0x4d, 0x75, 0x6c, 0x00,
  0x02, 0x00, 0x00, 0x00, 0x10, 0x00, 0x00, 0x00, 0x0d, 0x00, 0x00, 0x00, 0x22, 0xff, 0xff, 0xff,
  0x00, 0x00, 0x00, 0x01, 0x10, 0x00, 0x00, 0x00, 0x10, 0x00, 0x00, 0x00, 0x05, 0x00, 0x00, 0x00,
  0x2c, 0x00, 0x00, 0x00, 0x80, 0xfe, 0xff, 0xff, 0x1d, 0x00, 0x00, 0x00, 0x73, 0x65, 0x71, 0x75,
  0x65, 0x6e, 0x74, 0x69, 0x61, 0x6c, 0x5f, 0x31, 0x2f, 0x64, 0x65, 0x6e, 0x73, 0x65, 0x5f, 0x31,
  0x5f, 0x32, 0x2f, 0x4d, 0x61, 0x74, 0x4d, 0x75, 0x6c, 0x00, 0x00, 0x00, 0x02, 0x00, 0x00, 0x00,
  0x20, 0x00, 0x00, 0x00, 0x10, 0x00, 0x00, 0x00, 0x6e, 0xff, 0xff, 0xff, 0x00, 0x00, 0x00, 0x01,
  0x10, 0x00, 0x00, 0x00, 0x10, 0x00, 0x00, 0x00, 0x04, 0x00, 0x00, 0x00, 0x2c, 0x00, 0x00, 0x00,
  0xcc, 0xfe, 0xff, 0xff, 0x1d, 0x00, 0x00, 0x00, 0x73, 0x65, 0x71, 0x75, 0x65, 0x6e, 0x74, 0x69,
  0x61, 0x6c, 0x5f, 0x31, 0x2f, 0x64, 0x65, 0x6e, 0x73, 0x65, 0x5f, 0x32, 0x5f, 0x31, 0x2f, 0x4d,
  0x61, 0x74, 0x4d, 0x75, 0x6c, 0x00, 0x00, 0x00, 0x02, 0x00, 0x00, 0x00, 0x01, 0x00, 0x00, 0x00,
  0x20, 0x00, 0x00, 0x00, 0xba, 0xff, 0xff, 0xff, 0x00, 0x00, 0x00, 0x01, 0x10, 0x00, 0x00, 0x00,
  0x10, 0x00, 0x00, 0x00, 0x03, 0x00, 0x00, 0x00, 0x28, 0x00, 0x00, 0x00, 0x18, 0xff, 0xff, 0xff,
  0x1a, 0x00, 0x00, 0x00, 0x73, 0x65, 0x71, 0x75, 0x65, 0x6e, 0x74, 0x69, 0x61, 0x6c, 0x5f, 0x31,
  0x2f, 0x64, 0x65, 0x6e, 0x73, 0x65, 0x5f, 0x32, 0x5f, 0x31, 0x2f, 0x41, 0x64, 0x64, 0x00, 0x00,
  0x01, 0x00, 0x00, 0x00, 0x01, 0x00, 0x00, 0x00, 0x00, 0x00, 0x16, 0x00, 0x18, 0x00, 0x14, 0x00,
  0x00, 0x00, 0x10, 0x00, 0x0c, 0x00, 0x08, 0x00, 0x00, 0x00, 0x00, 0x00, 0x00, 0x00, 0x07, 0x00,
  0x16, 0x00, 0x00, 0x00, 0x00, 0x00, 0x00, 0x01, 0x10, 0x00, 0x00, 0x00, 0x10, 0x00, 0x00, 0x00,
  0x02, 0x00, 0x00, 0x00, 0x48, 0x00, 0x00, 0x00, 0x74, 0xff, 0xff, 0xff, 0x3a, 0x00, 0x00, 0x00,
  0x73, 0x65, 0x71, 0x75, 0x65, 0x6e, 0x74, 0x69, 0x61, 0x6c, 0x5f, 0x31, 0x2f, 0x64, 0x65, 0x6e,
  0x73, 0x65, 0x5f, 0x31, 0x5f, 0x32, 0x2f, 0x52, 0x65, 0x6c, 0x75, 0x3b, 0x73, 0x65, 0x71, 0x75,
  0x65, 0x6e, 0x74, 0x69, 0x61, 0x6c, 0x5f, 0x31, 0x2f, 0x64, 0x65, 0x6e, 0x73, 0x65, 0x5f, 0x31,
  0x5f, 0x32, 0x2f, 0x42, 0x69, 0x61, 0x73, 0x41, 0x64, 0x64, 0x00, 0x00, 0x01, 0x00, 0x00, 0x00,
  0x20, 0x00, 0x00, 0x00, 0x00, 0x00, 0x16, 0x00, 0x1c, 0x00, 0x18, 0x00, 0x00, 0x00, 0x14, 0x00,
  0x10, 0x00, 0x0c, 0x00, 0x00, 0x00, 0x00, 0x00, 0x08, 0x00, 0x07, 0x00, 0x16, 0x00, 0x00, 0x00,
  0x00, 0x00, 0x00, 0x01, 0x14, 0x00, 0x00, 0x00, 0x20, 0x00, 0x00, 0x00, 0x20, 0x00, 0x00, 0x00,
  0x01, 0x00, 0x00, 0x00, 0x3c, 0x00, 0x00, 0x00, 0x02, 0x00, 0x00, 0x00, 0xff, 0xff, 0xff, 0xff,
  0x0d, 0x00, 0x00, 0x00, 0x04, 0x00, 0x04, 0x00, 0x04, 0x00, 0x00, 0x00, 0x1e, 0x00, 0x00, 0x00,
  0x73, 0x65, 0x72, 0x76, 0x69, 0x6e, 0x67, 0x5f, 0x64, 0x65, 0x66, 0x61, 0x75, 0x6c, 0x74, 0x5f,
  0x6b, 0x65, 0x72, 0x61, 0x73, 0x5f, 0x74, 0x65, 0x6e, 0x73, 0x6f, 0x72, 0x3a, 0x30, 0x00, 0x00,
  0x02, 0x00, 0x00, 0x00, 0x01, 0x00, 0x00, 0x00, 0x0d, 0x00, 0x00, 0x00, 0x02, 0x00, 0x00, 0x00,
  0x20, 0x00, 0x00, 0x00, 0x04, 0x00, 0x00, 0x00, 0xf4, 0xff, 0xff, 0xff, 0x0e, 0x00, 0x00, 0x00,
  0x00, 0x00, 0x00, 0x0e, 0x0c, 0x00, 0x0c, 0x00, 0x0b, 0x00, 0x00, 0x00, 0x00, 0x00, 0x04, 0x00,
  0x0c, 0x00, 0x00, 0x00, 0x09, 0x00, 0x00, 0x00, 0x00, 0x00, 0x00, 0x09
};

const int g_model_len = 5356;
