// Gerado por train_models.py — Detection of Acoustic Anomalies
// Modelo: Dense(32, relu) -> Dense(1, sigmoid)
// Features: rms, peak, kurtosis, skewness, crest_factor
// Acuracia treino: 100.0%  val: 100.0%  teste: 100.0%
// Arquitetura: FC(5->32)+ReLU + FC(32->1)+Logistic | float32 | 2652 bytes

#include "model.h"

alignas(8) const unsigned char g_model[] = {
  0x1c, 0x00, 0x00, 0x00, 0x54, 0x46, 0x4c, 0x33, 0x14, 0x00, 0x20, 0x00, 0x1c, 0x00, 0x18, 0x00,
  0x14, 0x00, 0x10, 0x00, 0x0c, 0x00, 0x00, 0x00, 0x08, 0x00, 0x04, 0x00, 0x14, 0x00, 0x00, 0x00,
  0x1c, 0x00, 0x00, 0x00, 0x8c, 0x00, 0x00, 0x00, 0xe4, 0x00, 0x00, 0x00, 0x68, 0x05, 0x00, 0x00,
  0x78, 0x05, 0x00, 0x00, 0xf8, 0x09, 0x00, 0x00, 0x03, 0x00, 0x00, 0x00, 0x01, 0x00, 0x00, 0x00,
  0x04, 0x00, 0x00, 0x00, 0x4e, 0xfa, 0xff, 0xff, 0x0c, 0x00, 0x00, 0x00, 0x1c, 0x00, 0x00, 0x00,
  0x3c, 0x00, 0x00, 0x00, 0x0f, 0x00, 0x00, 0x00, 0x73, 0x65, 0x72, 0x76, 0x69, 0x6e, 0x67, 0x5f,
  0x64, 0x65, 0x66, 0x61, 0x75, 0x6c, 0x74, 0x00, 0x01, 0x00, 0x00, 0x00, 0x04, 0x00, 0x00, 0x00,
  0x90, 0xff, 0xff, 0xff, 0x07, 0x00, 0x00, 0x00, 0x04, 0x00, 0x00, 0x00, 0x08, 0x00, 0x00, 0x00,
  0x6f, 0x75, 0x74, 0x70, 0x75, 0x74, 0x5f, 0x30, 0x00, 0x00, 0x00, 0x00, 0x01, 0x00, 0x00, 0x00,
  0x04, 0x00, 0x00, 0x00, 0x1e, 0xfb, 0xff, 0xff, 0x04, 0x00, 0x00, 0x00, 0x0e, 0x00, 0x00, 0x00,
  0x6b, 0x65, 0x72, 0x61, 0x73, 0x5f, 0x74, 0x65, 0x6e, 0x73, 0x6f, 0x72, 0x5f, 0x36, 0x00, 0x00,
  0x02, 0x00, 0x00, 0x00, 0x34, 0x00, 0x00, 0x00, 0x04, 0x00, 0x00, 0x00, 0xdc, 0xff, 0xff, 0xff,
  0x0a, 0x00, 0x00, 0x00, 0x04, 0x00, 0x00, 0x00, 0x13, 0x00, 0x00, 0x00, 0x43, 0x4f, 0x4e, 0x56,
  0x45, 0x52, 0x53, 0x49, 0x4f, 0x4e, 0x5f, 0x4d, 0x45, 0x54, 0x41, 0x44, 0x41, 0x54, 0x41, 0x00,
  0x08, 0x00, 0x0c, 0x00, 0x08, 0x00, 0x04, 0x00, 0x08, 0x00, 0x00, 0x00, 0x09, 0x00, 0x00, 0x00,
  0x04, 0x00, 0x00, 0x00, 0x13, 0x00, 0x00, 0x00, 0x6d, 0x69, 0x6e, 0x5f, 0x72, 0x75, 0x6e, 0x74,
  0x69, 0x6d, 0x65, 0x5f, 0x76, 0x65, 0x72, 0x73, 0x69, 0x6f, 0x6e, 0x00, 0x0b, 0x00, 0x00, 0x00,
  0x80, 0x04, 0x00, 0x00, 0x78, 0x04, 0x00, 0x00, 0x64, 0x04, 0x00, 0x00, 0xcc, 0x03, 0x00, 0x00,
  0x3c, 0x01, 0x00, 0x00, 0xac, 0x00, 0x00, 0x00, 0xa4, 0x00, 0x00, 0x00, 0x9c, 0x00, 0x00, 0x00,
  0x94, 0x00, 0x00, 0x00, 0x74, 0x00, 0x00, 0x00, 0x04, 0x00, 0x00, 0x00, 0xc6, 0xfb, 0xff, 0xff,
  0x04, 0x00, 0x00, 0x00, 0x60, 0x00, 0x00, 0x00, 0x10, 0x00, 0x00, 0x00, 0x00, 0x00, 0x00, 0x00,
  0x08, 0x00, 0x0e, 0x00, 0x08, 0x00, 0x04, 0x00, 0x08, 0x00, 0x00, 0x00, 0x10, 0x00, 0x00, 0x00,
  0x24, 0x00, 0x00, 0x00, 0x00, 0x00, 0x06, 0x00, 0x08, 0x00, 0x04, 0x00, 0x06, 0x00, 0x00, 0x00,
  0x04, 0x00, 0x00, 0x00, 0x00, 0x00, 0x00, 0x00, 0x0c, 0x00, 0x18, 0x00, 0x14, 0x00, 0x10, 0x00,
  0x0c, 0x00, 0x04, 0x00, 0x0c, 0x00, 0x00, 0x00, 0x40, 0x44, 0x9a, 0x3a, 0x35, 0x82, 0x51, 0xa0,
  0x02, 0x00, 0x00, 0x00, 0x02, 0x00, 0x00, 0x00, 0x04, 0x00, 0x00, 0x00, 0x06, 0x00, 0x00, 0x00,
  0x32, 0x2e, 0x32, 0x31, 0x2e, 0x30, 0x00, 0x00, 0x32, 0xfc, 0xff, 0xff, 0x04, 0x00, 0x00, 0x00,
  0x10, 0x00, 0x00, 0x00, 0x31, 0x2e, 0x31, 0x34, 0x2e, 0x30, 0x00, 0x00, 0x00, 0x00, 0x00, 0x00,
  0x00, 0x00, 0x00, 0x00, 0xd4, 0xf7, 0xff, 0xff, 0xd8, 0xf7, 0xff, 0xff, 0xdc, 0xf7, 0xff, 0xff,
  0x5a, 0xfc, 0xff, 0xff, 0x04, 0x00, 0x00, 0x00, 0x80, 0x00, 0x00, 0x00, 0x66, 0xff, 0xb3, 0x3e,
  0x1d, 0x82, 0xda, 0x3e, 0xce, 0x8e, 0x74, 0xbf, 0x00, 0x00, 0x00, 0x00, 0x00, 0x00, 0x00, 0x00,
  0xd9, 0xe8, 0x1e, 0xbf, 0xb3, 0x84, 0xd4, 0xbe, 0x08, 0x4c, 0x77, 0xbc, 0x2f, 0x90, 0x43, 0xbe,
  0x98, 0x47, 0x1c, 0x3f, 0xce, 0x32, 0x52, 0x3f, 0x00, 0x00, 0x00, 0x00, 0x61, 0x27, 0x24, 0x3f,
  0xf3, 0xba, 0x2a, 0xbf, 0x00, 0x00, 0x00, 0x00, 0x54, 0xc2, 0xc4, 0x3e, 0xe1, 0x02, 0xe4, 0xbe,
  0x10, 0xaa, 0x83, 0xbd, 0x6b, 0x29, 0x17, 0xbf, 0x00, 0x00, 0x00, 0x00, 0x84, 0x58, 0xa0, 0x3f,
  0x6f, 0xe6, 0xaf, 0x3e, 0x51, 0xf6, 0x79, 0x3f, 0x00, 0x00, 0x00, 0x00, 0xc2, 0x4e, 0xb7, 0x3e,
  0x18, 0x9a, 0xcc, 0xbe, 0x00, 0x00, 0x00, 0x00, 0x00, 0x00, 0x00, 0x00, 0xa0, 0x53, 0xbb, 0xbe,
  0xff, 0x38, 0x94, 0xbf, 0x00, 0x00, 0x00, 0x00, 0x00, 0x00, 0x00, 0x00, 0xe6, 0xfc, 0xff, 0xff,
  0x04, 0x00, 0x00, 0x00, 0x80, 0x02, 0x00, 0x00, 0x1b, 0x96, 0x82, 0x3e, 0xd0, 0x3c, 0xf0, 0x39,
  0xb6, 0x0c, 0x45, 0x3c, 0xaf, 0xc4, 0x09, 0x3e, 0x3c, 0x10, 0x4d, 0x3e, 0x94, 0x7d, 0xe3, 0xbe,
  0xb6, 0xd0, 0xcf, 0x3c, 0x9b, 0x8d, 0x36, 0x3d, 0x4a, 0xb8, 0xfa, 0xbe, 0xf5, 0xca, 0x97, 0x3d,
  0xb3, 0x42, 0x07, 0x3f, 0xea, 0xdd, 0x0e, 0x3f, 0x04, 0x91, 0x55, 0x3e, 0x29, 0x72, 0x26, 0x3f,
  0xd3, 0x7c, 0x29, 0x3e, 0x48, 0x07, 0xaa, 0xbe, 0x07, 0xd6, 0xa3, 0xbe, 0x1c, 0xcc, 0x9c, 0xbe,
  0x54, 0x95, 0x10, 0x3e, 0x67, 0x2b, 0x6f, 0xbe, 0x90, 0x63, 0x8c, 0x3e, 0xbf, 0x0c, 0x6f, 0xbe,
  0xdc, 0xa0, 0x93, 0xbe, 0x8f, 0x38, 0xaa, 0xbe, 0x76, 0xda, 0x66, 0xbe, 0xd6, 0xcf, 0xfa, 0xbd,
  0xd3, 0x67, 0x05, 0x3f, 0x0a, 0x83, 0xb8, 0x3e, 0x6c, 0x9c, 0x4e, 0x3f, 0xca, 0x07, 0x88, 0x3e,
  0x66, 0xb7, 0x51, 0x3d, 0x09, 0xab, 0xde, 0x3e, 0xc1, 0x51, 0x4f, 0x3e, 0xea, 0x53, 0x12, 0x3f,
  0x6d, 0x9a, 0xe0, 0xbd, 0xbf, 0xa5, 0xe3, 0x3c, 0x91, 0x73, 0xc9, 0x3c, 0x65, 0x87, 0x9f, 0xbe,
  0xc6, 0x58, 0xc1, 0xbe, 0x7b, 0xa6, 0x26, 0x3e, 0x59, 0x8d, 0x2d, 0xbe, 0x3d, 0xf6, 0x8e, 0xbe,
  0x00, 0x44, 0x44, 0x3e, 0x11, 0x92, 0xb3, 0xbc, 0x86, 0x64, 0x43, 0xbe, 0xb3, 0xdc, 0x5d, 0xbe,
  0x87, 0xd4, 0x81, 0xbf, 0x7b, 0x9f, 0x72, 0x3d, 0x1c, 0xa5, 0x56, 0xbf, 0x2c, 0x8f, 0xe5, 0x3e,
  0xc4, 0xe4, 0x8c, 0x3d, 0xf2, 0x1b, 0xa6, 0xbe, 0xa9, 0x1e, 0x34, 0xbc, 0xd6, 0x52, 0x7e, 0xbf,
  0x2a, 0x93, 0xa2, 0x3e, 0x24, 0x45, 0x52, 0x3e, 0x08, 0xa9, 0x6a, 0x3d, 0xc8, 0xc3, 0x6f, 0xbd,
  0xb4, 0x1f, 0x8d, 0x3d, 0x88, 0x0b, 0xc6, 0xbd, 0xed, 0x0a, 0x04, 0x3e, 0x35, 0x6e, 0x65, 0xbf,
  0x85, 0x39, 0xb9, 0x3c, 0x3a, 0xd5, 0x83, 0xbf, 0x65, 0xc2, 0xff, 0x3e, 0x17, 0xe1, 0xa5, 0x3e,
  0x41, 0x5f, 0x55, 0x3f, 0xf7, 0x76, 0xc1, 0x3e, 0xf2, 0x8d, 0x57, 0x3f, 0xe3, 0x37, 0x86, 0xbe,
  0x50, 0x9d, 0x57, 0xbd, 0x20, 0x5c, 0x63, 0xbd, 0x9a, 0x46, 0xc7, 0xbe, 0xb0, 0x31, 0x06, 0xbd,
  0xe8, 0x82, 0x44, 0x3d, 0xb5, 0x29, 0x69, 0x3e, 0x5a, 0xa9, 0x15, 0xbf, 0x42, 0x76, 0xe1, 0x3c,
  0x8e, 0x92, 0xa6, 0x3d, 0x7f, 0x29, 0x01, 0x3e, 0x9d, 0xfa, 0xb1, 0x3d, 0xb8, 0xad, 0x6f, 0x3e,
  0x74, 0xc9, 0xed, 0x3e, 0x3d, 0xaa, 0x05, 0x3f, 0x04, 0xf7, 0x65, 0xbe, 0x76, 0x95, 0x32, 0xbe,
  0x93, 0xa3, 0x3f, 0xbd, 0x4b, 0xfd, 0xcd, 0x3d, 0xea, 0x3a, 0xba, 0xbe, 0x2b, 0x6a, 0x83, 0xbe,
  0x5c, 0x92, 0x86, 0x3e, 0x8e, 0x9c, 0x21, 0x3e, 0xb5, 0x6a, 0xd3, 0x3e, 0x75, 0x2a, 0xb7, 0x3d,
  0xe9, 0xa1, 0xc6, 0xbe, 0xa5, 0x8d, 0x93, 0xbe, 0xfa, 0x4d, 0xa6, 0x3e, 0x4f, 0x27, 0xa0, 0xbe,
  0x18, 0x54, 0x13, 0x3d, 0x44, 0xd3, 0xda, 0xbd, 0xf9, 0x8e, 0x1c, 0xbf, 0x21, 0x3b, 0x94, 0xbf,
  0x19, 0xfd, 0xe1, 0xbb, 0x6a, 0x60, 0x9b, 0xbf, 0xaa, 0x21, 0x34, 0x3f, 0x88, 0x79, 0xe5, 0x3d,
  0x19, 0xe7, 0x04, 0xbd, 0x17, 0x1f, 0x8d, 0x3d, 0xfd, 0x23, 0x97, 0xbc, 0x33, 0x59, 0x83, 0xbc,
  0x1c, 0xf6, 0x01, 0xbf, 0x2d, 0x99, 0x7e, 0xbf, 0xa9, 0x33, 0x0a, 0xbd, 0x28, 0x8b, 0x9e, 0xbf,
  0xf2, 0x3d, 0x47, 0x3f, 0x3e, 0xa6, 0x3e, 0xbe, 0xac, 0xbf, 0x84, 0x3d, 0xbc, 0x10, 0x92, 0xbe,
  0xce, 0x69, 0x1d, 0xbe, 0xde, 0x0e, 0x15, 0xbe, 0x61, 0x5a, 0x8b, 0xbc, 0xdb, 0xd9, 0xb1, 0xbe,
  0x34, 0x71, 0x21, 0x3e, 0xad, 0xae, 0x48, 0x3d, 0xb2, 0x1a, 0x7b, 0x3e, 0xdd, 0x85, 0x47, 0xbe,
  0xff, 0xf3, 0xe8, 0xbd, 0xb0, 0xdc, 0x95, 0x3e, 0x58, 0x0f, 0xb1, 0x3d, 0x75, 0xef, 0x66, 0x3e,
  0x98, 0x84, 0x39, 0xbd, 0x86, 0xaa, 0x9f, 0xbe, 0x10, 0xb2, 0x92, 0xbe, 0x6c, 0xd0, 0xb9, 0x3e,
  0xc0, 0x24, 0x01, 0x3d, 0x80, 0x8a, 0x9d, 0x3b, 0xdf, 0xd6, 0x92, 0xbe, 0xd8, 0x5d, 0x53, 0xbd,
  0xa5, 0xdd, 0x6d, 0xbe, 0x67, 0xe3, 0x24, 0xbe, 0x01, 0xc6, 0xaf, 0x3d, 0x3f, 0x39, 0x99, 0x3e,
  0x7c, 0x1e, 0xa7, 0x3e, 0xc7, 0x76, 0x0d, 0xbe, 0xb3, 0xc8, 0x98, 0xbe, 0x7d, 0x0d, 0x4a, 0x3f,
  0x21, 0x24, 0x70, 0x3f, 0xba, 0x09, 0x39, 0x3e, 0xce, 0x11, 0xa2, 0x3f, 0x0e, 0x61, 0x83, 0x3e,
  0x96, 0xe9, 0x83, 0x3e, 0x30, 0x3b, 0x5a, 0xbd, 0xc0, 0x9c, 0xdb, 0xbb, 0x84, 0xac, 0xef, 0xbd,
  0x02, 0x4a, 0x83, 0xbe, 0xd2, 0xc7, 0xac, 0x3e, 0xec, 0xb5, 0x36, 0x3e, 0xac, 0xa8, 0xb4, 0xbe,
  0x82, 0x8d, 0x63, 0xbe, 0xf4, 0x34, 0xb6, 0xbd, 0x72, 0xff, 0xff, 0xff, 0x04, 0x00, 0x00, 0x00,
  0x80, 0x00, 0x00, 0x00, 0x05, 0x95, 0x78, 0xbe, 0x79, 0xa1, 0xe9, 0xbe, 0x32, 0xda, 0xe2, 0x3e,
  0x94, 0xb3, 0x88, 0xbe, 0x34, 0x24, 0xa4, 0xbd, 0x4e, 0x2a, 0x05, 0x3e, 0x26, 0xf5, 0xd5, 0x3e,
  0xc1, 0xb3, 0x49, 0x3e, 0x0c, 0xb7, 0x56, 0x3d, 0x23, 0xb8, 0xa1, 0xbf, 0x47, 0xa2, 0x89, 0xbf,
  0x42, 0x0b, 0x8b, 0xbe, 0xc5, 0x50, 0x81, 0xbf, 0xe2, 0x32, 0x5e, 0x3e, 0xa0, 0x80, 0x62, 0xbe,
  0xea, 0xff, 0xf5, 0xbe, 0x63, 0xbb, 0x88, 0x3e, 0xaa, 0x5b, 0xb3, 0xbe, 0x09, 0x43, 0xb7, 0x3d,
  0x64, 0x50, 0x8d, 0x3e, 0x9b, 0x88, 0x96, 0xbf, 0x40, 0xb2, 0x73, 0xbe, 0xca, 0x47, 0x4a, 0xbf,
  0x97, 0xa9, 0xd5, 0xbe, 0x3c, 0x47, 0x9e, 0xbe, 0x50, 0x24, 0x97, 0x3e, 0xd4, 0x76, 0xbb, 0x3e,
  0xd8, 0xfa, 0xc2, 0xbe, 0xff, 0x1c, 0xc3, 0x3e, 0x10, 0xe0, 0xdc, 0x3f, 0xca, 0xdd, 0x88, 0x3e,
  0x80, 0x8a, 0xe9, 0x3d, 0x00, 0x00, 0x06, 0x00, 0x08, 0x00, 0x04, 0x00, 0x06, 0x00, 0x00, 0x00,
  0x04, 0x00, 0x00, 0x00, 0x04, 0x00, 0x00, 0x00, 0xf9, 0x39, 0xbc, 0xbe, 0x9c, 0xfb, 0xff, 0xff,
  0xa0, 0xfb, 0xff, 0xff, 0x0f, 0x00, 0x00, 0x00, 0x4d, 0x4c, 0x49, 0x52, 0x20, 0x43, 0x6f, 0x6e,
  0x76, 0x65, 0x72, 0x74, 0x65, 0x64, 0x2e, 0x00, 0x01, 0x00, 0x00, 0x00, 0x14, 0x00, 0x00, 0x00,
  0x00, 0x00, 0x0e, 0x00, 0x18, 0x00, 0x14, 0x00, 0x10, 0x00, 0x0c, 0x00, 0x08, 0x00, 0x04, 0x00,
  0x0e, 0x00, 0x00, 0x00, 0x14, 0x00, 0x00, 0x00, 0x1c, 0x00, 0x00, 0x00, 0xe0, 0x00, 0x00, 0x00,
  0xe4, 0x00, 0x00, 0x00, 0xe8, 0x00, 0x00, 0x00, 0x04, 0x00, 0x00, 0x00, 0x6d, 0x61, 0x69, 0x6e,
  0x00, 0x00, 0x00, 0x00, 0x03, 0x00, 0x00, 0x00, 0x88, 0x00, 0x00, 0x00, 0x44, 0x00, 0x00, 0x00,
  0x10, 0x00, 0x00, 0x00, 0x00, 0x00, 0x0a, 0x00, 0x10, 0x00, 0x0c, 0x00, 0x08, 0x00, 0x04, 0x00,
  0x0a, 0x00, 0x00, 0x00, 0x0c, 0x00, 0x00, 0x00, 0x10, 0x00, 0x00, 0x00, 0x01, 0x00, 0x00, 0x00,
  0x01, 0x00, 0x00, 0x00, 0x07, 0x00, 0x00, 0x00, 0x01, 0x00, 0x00, 0x00, 0x06, 0x00, 0x00, 0x00,
  0x00, 0x00, 0x0e, 0x00, 0x14, 0x00, 0x00, 0x00, 0x10, 0x00, 0x0c, 0x00, 0x0b, 0x00, 0x04, 0x00,
  0x0e, 0x00, 0x00, 0x00, 0x10, 0x00, 0x00, 0x00, 0x00, 0x00, 0x00, 0x08, 0x0c, 0x00, 0x00, 0x00,
  0x10, 0x00, 0x00, 0x00, 0x54, 0xfc, 0xff, 0xff, 0x01, 0x00, 0x00, 0x00, 0x06, 0x00, 0x00, 0x00,
  0x03, 0x00, 0x00, 0x00, 0x05, 0x00, 0x00, 0x00, 0x02, 0x00, 0x00, 0x00, 0x01, 0x00, 0x00, 0x00,
  0x00, 0x00, 0x0e, 0x00, 0x16, 0x00, 0x00, 0x00, 0x10, 0x00, 0x0c, 0x00, 0x0b, 0x00, 0x04, 0x00,
  0x0e, 0x00, 0x00, 0x00, 0x18, 0x00, 0x00, 0x00, 0x00, 0x00, 0x00, 0x08, 0x18, 0x00, 0x00, 0x00,
  0x1c, 0x00, 0x00, 0x00, 0x00, 0x00, 0x06, 0x00, 0x08, 0x00, 0x07, 0x00, 0x06, 0x00, 0x00, 0x00,
  0x00, 0x00, 0x00, 0x01, 0x01, 0x00, 0x00, 0x00, 0x05, 0x00, 0x00, 0x00, 0x03, 0x00, 0x00, 0x00,
  0x00, 0x00, 0x00, 0x00, 0x03, 0x00, 0x00, 0x00, 0x04, 0x00, 0x00, 0x00, 0x01, 0x00, 0x00, 0x00,
  0x07, 0x00, 0x00, 0x00, 0x01, 0x00, 0x00, 0x00, 0x00, 0x00, 0x00, 0x00, 0x08, 0x00, 0x00, 0x00,
  0x08, 0x03, 0x00, 0x00, 0xa4, 0x02, 0x00, 0x00, 0x3c, 0x02, 0x00, 0x00, 0xec, 0x01, 0x00, 0x00,
  0x80, 0x01, 0x00, 0x00, 0xe0, 0x00, 0x00, 0x00, 0x60, 0x00, 0x00, 0x00, 0x04, 0x00, 0x00, 0x00,
  0x2e, 0xfd, 0xff, 0xff, 0x00, 0x00, 0x00, 0x01, 0x14, 0x00, 0x00, 0x00, 0x1c, 0x00, 0x00, 0x00,
  0x1c, 0x00, 0x00, 0x00, 0x08, 0x00, 0x00, 0x00, 0x34, 0x00, 0x00, 0x00, 0x02, 0x00, 0x00, 0x00,
  0xff, 0xff, 0xff, 0xff, 0x01, 0x00, 0x00, 0x00, 0x18, 0xfd, 0xff, 0xff, 0x1b, 0x00, 0x00, 0x00,
  0x53, 0x74, 0x61, 0x74, 0x65, 0x66, 0x75, 0x6c, 0x50, 0x61, 0x72, 0x74, 0x69, 0x74, 0x69, 0x6f,
  0x6e, 0x65, 0x64, 0x43, 0x61, 0x6c, 0x6c, 0x5f, 0x31, 0x3a, 0x30, 0x00, 0x02, 0x00, 0x00, 0x00,
  0x01, 0x00, 0x00, 0x00, 0x01, 0x00, 0x00, 0x00, 0x86, 0xfd, 0xff, 0xff, 0x00, 0x00, 0x00, 0x01,
  0x14, 0x00, 0x00, 0x00, 0x1c, 0x00, 0x00, 0x00, 0x1c, 0x00, 0x00, 0x00, 0x07, 0x00, 0x00, 0x00,
  0x58, 0x00, 0x00, 0x00, 0x02, 0x00, 0x00, 0x00, 0xff, 0xff, 0xff, 0xff, 0x01, 0x00, 0x00, 0x00,
  0x70, 0xfd, 0xff, 0xff, 0x3c, 0x00, 0x00, 0x00, 0x73, 0x65, 0x71, 0x75, 0x65, 0x6e, 0x74, 0x69,
  0x61, 0x6c, 0x5f, 0x32, 0x5f, 0x31, 0x2f, 0x64, 0x65, 0x6e, 0x73, 0x65, 0x5f, 0x35, 0x5f, 0x31,
  0x2f, 0x4d, 0x61, 0x74, 0x4d, 0x75, 0x6c, 0x3b, 0x73, 0x65, 0x71, 0x75, 0x65, 0x6e, 0x74, 0x69,
  0x61, 0x6c, 0x5f, 0x32, 0x5f, 0x31, 0x2f, 0x64, 0x65, 0x6e, 0x73, 0x65, 0x5f, 0x35, 0x5f, 0x31,
  0x2f, 0x41, 0x64, 0x64, 0x00, 0x00, 0x00, 0x00, 0x02, 0x00, 0x00, 0x00, 0x01, 0x00, 0x00, 0x00,
  0x01, 0x00, 0x00, 0x00, 0x02, 0xfe, 0xff, 0xff, 0x00, 0x00, 0x00, 0x01, 0x14, 0x00, 0x00, 0x00,
  0x1c, 0x00, 0x00, 0x00, 0x1c, 0x00, 0x00, 0x00, 0x06, 0x00, 0x00, 0x00, 0x78, 0x00, 0x00, 0x00,
  0x02, 0x00, 0x00, 0x00, 0xff, 0xff, 0xff, 0xff, 0x20, 0x00, 0x00, 0x00, 0xec, 0xfd, 0xff, 0xff,
  0x5e, 0x00, 0x00, 0x00, 0x73, 0x65, 0x71, 0x75, 0x65, 0x6e, 0x74, 0x69, 0x61, 0x6c, 0x5f, 0x32,
  0x5f, 0x31, 0x2f, 0x64, 0x65, 0x6e, 0x73, 0x65, 0x5f, 0x34, 0x5f, 0x31, 0x2f, 0x4d, 0x61, 0x74,
  0x4d, 0x75, 0x6c, 0x3b, 0x73, 0x65, 0x71, 0x75, 0x65, 0x6e, 0x74, 0x69, 0x61, 0x6c, 0x5f, 0x32,
  0x5f, 0x31, 0x2f, 0x64, 0x65, 0x6e, 0x73, 0x65, 0x5f, 0x34, 0x5f, 0x31, 0x2f, 0x52, 0x65, 0x6c,
  0x75, 0x3b, 0x73, 0x65, 0x71, 0x75, 0x65, 0x6e, 0x74, 0x69, 0x61, 0x6c, 0x5f, 0x32, 0x5f, 0x31,
  0x2f, 0x64, 0x65, 0x6e, 0x73, 0x65, 0x5f, 0x34, 0x5f, 0x31, 0x2f, 0x42, 0x69, 0x61, 0x73, 0x41,
  0x64, 0x64, 0x00, 0x00, 0x02, 0x00, 0x00, 0x00, 0x01, 0x00, 0x00, 0x00, 0x20, 0x00, 0x00, 0x00,
  0xfe, 0xfe, 0xff, 0xff, 0x00, 0x00, 0x00, 0x01, 0x10, 0x00, 0x00, 0x00, 0x10, 0x00, 0x00, 0x00,
  0x05, 0x00, 0x00, 0x00, 0x4c, 0x00, 0x00, 0x00, 0x78, 0xfe, 0xff, 0xff, 0x3e, 0x00, 0x00, 0x00,
  0x73, 0x65, 0x71, 0x75, 0x65, 0x6e, 0x74, 0x69, 0x61, 0x6c, 0x5f, 0x32, 0x5f, 0x31, 0x2f, 0x64,
  0x65, 0x6e, 0x73, 0x65, 0x5f, 0x34, 0x5f, 0x31, 0x2f, 0x52, 0x65, 0x6c, 0x75, 0x3b, 0x73, 0x65,
  0x71, 0x75, 0x65, 0x6e, 0x74, 0x69, 0x61, 0x6c, 0x5f, 0x32, 0x5f, 0x31, 0x2f, 0x64, 0x65, 0x6e,
  0x73, 0x65, 0x5f, 0x34, 0x5f, 0x31, 0x2f, 0x42, 0x69, 0x61, 0x73, 0x41, 0x64, 0x64, 0x00, 0x00,
  0x01, 0x00, 0x00, 0x00, 0x20, 0x00, 0x00, 0x00, 0x66, 0xff, 0xff, 0xff, 0x00, 0x00, 0x00, 0x01,
  0x10, 0x00, 0x00, 0x00, 0x10, 0x00, 0x00, 0x00, 0x04, 0x00, 0x00, 0x00, 0x2c, 0x00, 0x00, 0x00,
  0xe0, 0xfe, 0xff, 0xff, 0x1f, 0x00, 0x00, 0x00, 0x73, 0x65, 0x71, 0x75, 0x65, 0x6e, 0x74, 0x69,
  0x61, 0x6c, 0x5f, 0x32, 0x5f, 0x31, 0x2f, 0x64, 0x65, 0x6e, 0x73, 0x65, 0x5f, 0x34, 0x5f, 0x31,
  0x2f, 0x4d, 0x61, 0x74, 0x4d, 0x75, 0x6c, 0x00, 0x02, 0x00, 0x00, 0x00, 0x20, 0x00, 0x00, 0x00,
  0x05, 0x00, 0x00, 0x00, 0xb2, 0xff, 0xff, 0xff, 0x00, 0x00, 0x00, 0x01, 0x10, 0x00, 0x00, 0x00,
  0x10, 0x00, 0x00, 0x00, 0x03, 0x00, 0x00, 0x00, 0x2c, 0x00, 0x00, 0x00, 0x2c, 0xff, 0xff, 0xff,
  0x1f, 0x00, 0x00, 0x00, 0x73, 0x65, 0x71, 0x75, 0x65, 0x6e, 0x74, 0x69, 0x61, 0x6c, 0x5f, 0x32,
  0x5f, 0x31, 0x2f, 0x64, 0x65, 0x6e, 0x73, 0x65, 0x5f, 0x35, 0x5f, 0x31, 0x2f, 0x4d, 0x61, 0x74,
  0x4d, 0x75, 0x6c, 0x00, 0x02, 0x00, 0x00, 0x00, 0x01, 0x00, 0x00, 0x00, 0x20, 0x00, 0x00, 0x00,
  0x00, 0x00, 0x16, 0x00, 0x18, 0x00, 0x14, 0x00, 0x00, 0x00, 0x10, 0x00, 0x0c, 0x00, 0x08, 0x00,
  0x00, 0x00, 0x00, 0x00, 0x00, 0x00, 0x07, 0x00, 0x16, 0x00, 0x00, 0x00, 0x00, 0x00, 0x00, 0x01,
  0x10, 0x00, 0x00, 0x00, 0x10, 0x00, 0x00, 0x00, 0x02, 0x00, 0x00, 0x00, 0x2c, 0x00, 0x00, 0x00,
  0x90, 0xff, 0xff, 0xff, 0x1c, 0x00, 0x00, 0x00, 0x73, 0x65, 0x71, 0x75, 0x65, 0x6e, 0x74, 0x69,
  0x61, 0x6c, 0x5f, 0x32, 0x5f, 0x31, 0x2f, 0x64, 0x65, 0x6e, 0x73, 0x65, 0x5f, 0x35, 0x5f, 0x31,
  0x2f, 0x41, 0x64, 0x64, 0x00, 0x00, 0x00, 0x00, 0x01, 0x00, 0x00, 0x00, 0x01, 0x00, 0x00, 0x00,
  0x00, 0x00, 0x16, 0x00, 0x1c, 0x00, 0x18, 0x00, 0x00, 0x00, 0x14, 0x00, 0x10, 0x00, 0x0c, 0x00,
  0x00, 0x00, 0x00, 0x00, 0x08, 0x00, 0x07, 0x00, 0x16, 0x00, 0x00, 0x00, 0x00, 0x00, 0x00, 0x01,
  0x14, 0x00, 0x00, 0x00, 0x20, 0x00, 0x00, 0x00, 0x20, 0x00, 0x00, 0x00, 0x01, 0x00, 0x00, 0x00,
  0x40, 0x00, 0x00, 0x00, 0x02, 0x00, 0x00, 0x00, 0xff, 0xff, 0xff, 0xff, 0x05, 0x00, 0x00, 0x00,
  0x04, 0x00, 0x04, 0x00, 0x04, 0x00, 0x00, 0x00, 0x20, 0x00, 0x00, 0x00, 0x73, 0x65, 0x72, 0x76,
  0x69, 0x6e, 0x67, 0x5f, 0x64, 0x65, 0x66, 0x61, 0x75, 0x6c, 0x74, 0x5f, 0x6b, 0x65, 0x72, 0x61,
  0x73, 0x5f, 0x74, 0x65, 0x6e, 0x73, 0x6f, 0x72, 0x5f, 0x36, 0x3a, 0x30, 0x00, 0x00, 0x00, 0x00,
  0x02, 0x00, 0x00, 0x00, 0x01, 0x00, 0x00, 0x00, 0x05, 0x00, 0x00, 0x00, 0x02, 0x00, 0x00, 0x00,
  0x20, 0x00, 0x00, 0x00, 0x04, 0x00, 0x00, 0x00, 0xf4, 0xff, 0xff, 0xff, 0x0e, 0x00, 0x00, 0x00,
  0x00, 0x00, 0x00, 0x0e, 0x0c, 0x00, 0x0c, 0x00, 0x0b, 0x00, 0x00, 0x00, 0x00, 0x00, 0x04, 0x00,
  0x0c, 0x00, 0x00, 0x00, 0x09, 0x00, 0x00, 0x00, 0x00, 0x00, 0x00, 0x09
};

const int g_model_len = 2652;
