#include "model.h"

const unsigned char g_model[] = {
    0x1C, 0x00, 0x00, 0x00, 0x54, 0x46, 0x4C, 0x33, 0x14, 0x00, 0x20, 0x00,
    0x1C, 0x00, 0x18, 0x00, 0x14, 0x00, 0x10, 0x00, 0x0C, 0x00, 0x00, 0x00,
    0x08, 0x00, 0x04, 0x00, 0x14, 0x00, 0x00, 0x00, 0x1C, 0x00, 0x00, 0x00,
    0x98, 0x00, 0x00, 0x00, 0xF0, 0x00, 0x00, 0x00, 0x1C, 0x05, 0x00, 0x00,
    0x2C, 0x05, 0x00, 0x00, 0x60, 0x11, 0x00, 0x00, 0x03, 0x00, 0x00, 0x00,
    0x01, 0x00, 0x00, 0x00, 0x10, 0x00, 0x00, 0x00, 0x00, 0x00, 0x0A, 0x00,
    0x10, 0x00, 0x0C, 0x00, 0x08, 0x00, 0x04, 0x00, 0x0A, 0x00, 0x00, 0x00,
    0x0C, 0x00, 0x00, 0x00, 0x1C, 0x00, 0x00, 0x00, 0x3C, 0x00, 0x00, 0x00,
    0x0F, 0x00, 0x00, 0x00, 0x73, 0x65, 0x72, 0x76, 0x69, 0x6E, 0x67, 0x5F,
    0x64, 0x65, 0x66, 0x61, 0x75, 0x6C, 0x74, 0x00, 0x01, 0x00, 0x00, 0x00,
    0x04, 0x00, 0x00, 0x00, 0x90, 0xFF, 0xFF, 0xFF, 0x0C, 0x00, 0x00, 0x00,
    0x04, 0x00, 0x00, 0x00, 0x08, 0x00, 0x00, 0x00, 0x6F, 0x75, 0x74, 0x70,
    0x75, 0x74, 0x5F, 0x30, 0x00, 0x00, 0x00, 0x00, 0x01, 0x00, 0x00, 0x00,
    0x04, 0x00, 0x00, 0x00, 0x76, 0xFB, 0xFF, 0xFF, 0x04, 0x00, 0x00, 0x00,
    0x0E, 0x00, 0x00, 0x00, 0x6B, 0x65, 0x72, 0x61, 0x73, 0x5F, 0x74, 0x65,
    0x6E, 0x73, 0x6F, 0x72, 0x5F, 0x37, 0x00, 0x00, 0x02, 0x00, 0x00, 0x00,
    0x34, 0x00, 0x00, 0x00, 0x04, 0x00, 0x00, 0x00, 0xDC, 0xFF, 0xFF, 0xFF,
    0x0F, 0x00, 0x00, 0x00, 0x04, 0x00, 0x00, 0x00, 0x13, 0x00, 0x00, 0x00,
    0x43, 0x4F, 0x4E, 0x56, 0x45, 0x52, 0x53, 0x49, 0x4F, 0x4E, 0x5F, 0x4D,
    0x45, 0x54, 0x41, 0x44, 0x41, 0x54, 0x41, 0x00, 0x08, 0x00, 0x0C, 0x00,
    0x08, 0x00, 0x04, 0x00, 0x08, 0x00, 0x00, 0x00, 0x0E, 0x00, 0x00, 0x00,
    0x04, 0x00, 0x00, 0x00, 0x13, 0x00, 0x00, 0x00, 0x6D, 0x69, 0x6E, 0x5F,
    0x72, 0x75, 0x6E, 0x74, 0x69, 0x6D, 0x65, 0x5F, 0x76, 0x65, 0x72, 0x73,
    0x69, 0x6F, 0x6E, 0x00, 0x10, 0x00, 0x00, 0x00, 0x28, 0x04, 0x00, 0x00,
    0x20, 0x04, 0x00, 0x00, 0x0C, 0x04, 0x00, 0x00, 0xE4, 0x03, 0x00, 0x00,
    0x94, 0x03, 0x00, 0x00, 0x84, 0x02, 0x00, 0x00, 0x34, 0x02, 0x00, 0x00,
    0x24, 0x01, 0x00, 0x00, 0xD4, 0x00, 0x00, 0x00, 0xB4, 0x00, 0x00, 0x00,
    0xAC, 0x00, 0x00, 0x00, 0xA4, 0x00, 0x00, 0x00, 0x9C, 0x00, 0x00, 0x00,
    0x94, 0x00, 0x00, 0x00, 0x74, 0x00, 0x00, 0x00, 0x04, 0x00, 0x00, 0x00,
    0x32, 0xFC, 0xFF, 0xFF, 0x04, 0x00, 0x00, 0x00, 0x60, 0x00, 0x00, 0x00,
    0x0C, 0x00, 0x00, 0x00, 0x08, 0x00, 0x0E, 0x00, 0x08, 0x00, 0x04, 0x00,
    0x08, 0x00, 0x00, 0x00, 0x10, 0x00, 0x00, 0x00, 0x28, 0x00, 0x00, 0x00,
    0x00, 0x00, 0x06, 0x00, 0x08, 0x00, 0x04, 0x00, 0x06, 0x00, 0x00, 0x00,
    0x04, 0x00, 0x00, 0x00, 0x01, 0x00, 0x00, 0x00, 0xEB, 0x03, 0x00, 0x00,
    0x0C, 0x00, 0x18, 0x00, 0x14, 0x00, 0x10, 0x00, 0x0C, 0x00, 0x04, 0x00,
    0x0C, 0x00, 0x00, 0x00, 0xA5, 0x54, 0x48, 0xA4, 0x3A, 0x85, 0x99, 0x43,
    0x01, 0x00, 0x00, 0x00, 0x02, 0x00, 0x00, 0x00, 0x04, 0x00, 0x00, 0x00,
    0x06, 0x00, 0x00, 0x00, 0x32, 0x2E, 0x32, 0x30, 0x2E, 0x30, 0x00, 0x00,
    0x9E, 0xFC, 0xFF, 0xFF, 0x04, 0x00, 0x00, 0x00, 0x10, 0x00, 0x00, 0x00,
    0x31, 0x2E, 0x31, 0x34, 0x2E, 0x30, 0x00, 0x00, 0x00, 0x00, 0x00, 0x00,
    0x00, 0x00, 0x00, 0x00, 0x24, 0xFC, 0xFF, 0xFF, 0x28, 0xFC, 0xFF, 0xFF,
    0x2C, 0xFC, 0xFF, 0xFF, 0x30, 0xFC, 0xFF, 0xFF, 0xCA, 0xFC, 0xFF, 0xFF,
    0x04, 0x00, 0x00, 0x00, 0x10, 0x00, 0x00, 0x00, 0x81, 0x7F, 0x81, 0x81,
    0x7F, 0x81, 0x81, 0x81, 0x81, 0x81, 0x81, 0x7F, 0x7F, 0x81, 0x7F, 0x7F,
    0xE6, 0xFC, 0xFF, 0xFF, 0x04, 0x00, 0x00, 0x00, 0x40, 0x00, 0x00, 0x00,
    0x00, 0x00, 0x00, 0x00, 0x6F, 0xE6, 0xFF, 0xFF, 0x00, 0x00, 0x00, 0x00,
    0x00, 0x00, 0x00, 0x00, 0x05, 0xF9, 0xFF, 0xFF, 0x00, 0x00, 0x00, 0x00,
    0x00, 0x00, 0x00, 0x00, 0x00, 0x00, 0x00, 0x00, 0x00, 0x00, 0x00, 0x00,
    0x00, 0x00, 0x00, 0x00, 0x00, 0x00, 0x00, 0x00, 0x5B, 0x11, 0x00, 0x00,
    0x71, 0x0B, 0x00, 0x00, 0x00, 0x00, 0x00, 0x00, 0xB5, 0xEA, 0xFF, 0xFF,
    0x92, 0x05, 0x00, 0x00, 0x32, 0xFD, 0xFF, 0xFF, 0x04, 0x00, 0x00, 0x00,
    0x00, 0x01, 0x00, 0x00, 0x17, 0x81, 0xFA, 0x70, 0x9D, 0xA3, 0x01, 0xD9,
    0xFC, 0xAA, 0x12, 0xFE, 0x64, 0x3C, 0xB2, 0x7A, 0x48, 0x7F, 0x25, 0xD6,
    0x75, 0x64, 0xF0, 0x05, 0x0C, 0x59, 0x59, 0x55, 0x5B, 0x62, 0xC1, 0x30,
    0x29, 0x41, 0x13, 0x5C, 0xF6, 0xD8, 0xB8, 0x83, 0x81, 0xB5, 0xE0, 0x87,
    0xA2, 0xEF, 0x25, 0x4D, 0xF8, 0x81, 0x93, 0xCF, 0x91, 0x41, 0x64, 0xD5,
    0x8F, 0xE9, 0xFD, 0x78, 0xA3, 0xE1, 0x95, 0xCC, 0x93, 0x81, 0xFF, 0x9C,
    0x8B, 0xDE, 0x55, 0xCF, 0x82, 0xB9, 0xCA, 0x47, 0x26, 0xB8, 0xCF, 0x37,
    0x14, 0x81, 0xC2, 0xC1, 0xF8, 0xE2, 0xE8, 0xB0, 0x18, 0xF8, 0x55, 0x5A,
    0x17, 0x3A, 0xC3, 0xDC, 0x7F, 0x34, 0x44, 0x43, 0xEE, 0x93, 0xC6, 0x6F,
    0x25, 0x5E, 0x00, 0x9D, 0xC5, 0xD5, 0x00, 0x25, 0xA5, 0x2F, 0x7F, 0x7F,
    0x28, 0xFD, 0xD9, 0xE6, 0xE6, 0x1A, 0x39, 0x11, 0xE6, 0x8E, 0x2C, 0xFD,
    0x01, 0x4E, 0x5E, 0x56, 0x81, 0x4E, 0x18, 0x70, 0xF5, 0x57, 0x5A, 0x87,
    0x32, 0x56, 0xAD, 0x4E, 0xB8, 0xD9, 0xEA, 0xC4, 0x1E, 0x62, 0x4F, 0x0C,
    0xEB, 0xFF, 0xB8, 0x13, 0x81, 0x33, 0x28, 0x4E, 0xE6, 0x35, 0x3B, 0xD3,
    0xFB, 0x7C, 0xA6, 0x6A, 0x65, 0xCB, 0x37, 0xA4, 0x0A, 0x79, 0x7F, 0x73,
    0xA8, 0x62, 0xE8, 0x1A, 0x6B, 0xC7, 0xFD, 0x19, 0xAC, 0xC9, 0xF9, 0xE0,
    0x47, 0xBB, 0x00, 0x7F, 0x11, 0x2D, 0xE7, 0x81, 0x61, 0x4D, 0x74, 0xE9,
    0xD2, 0x93, 0x32, 0xC1, 0x8F, 0x6A, 0x31, 0xBF, 0x35, 0x0B, 0x7F, 0x3C,
    0x4A, 0x65, 0x25, 0xE7, 0x90, 0x40, 0xC2, 0x71, 0xB4, 0x71, 0x9C, 0x02,
    0x14, 0x88, 0xD3, 0xB6, 0x53, 0x12, 0xC9, 0x47, 0xB0, 0x43, 0x12, 0xDF,
    0x9A, 0x7F, 0x5F, 0xF7, 0xD3, 0x64, 0x19, 0x51, 0xE6, 0x4E, 0xAB, 0x24,
    0xDB, 0xD5, 0xD1, 0x67, 0xDC, 0xC6, 0x81, 0xDA, 0x3E, 0xFE, 0xFF, 0xFF,
    0x04, 0x00, 0x00, 0x00, 0x40, 0x00, 0x00, 0x00, 0x3D, 0x10, 0x00, 0x00,
    0xD7, 0xEE, 0xFF, 0xFF, 0x00, 0x00, 0x00, 0x00, 0xEC, 0xFB, 0xFF, 0xFF,
    0xCB, 0x22, 0x00, 0x00, 0x91, 0x22, 0x00, 0x00, 0x00, 0x00, 0x00, 0x00,
    0x94, 0x05, 0x00, 0x00, 0xEB, 0x19, 0x00, 0x00, 0x00, 0x00, 0x00, 0x00,
    0x0D, 0xE4, 0xFF, 0xFF, 0x89, 0xFE, 0xFF, 0xFF, 0x00, 0x00, 0x00, 0x00,
    0x04, 0x02, 0x00, 0x00, 0x00, 0x00, 0x00, 0x00, 0x67, 0xFD, 0xFF, 0xFF,
    0x8A, 0xFE, 0xFF, 0xFF, 0x04, 0x00, 0x00, 0x00, 0x00, 0x01, 0x00, 0x00,
    0xE9, 0x81, 0x27, 0xEC, 0xE4, 0x2C, 0xCF, 0x41, 0x1B, 0xBC, 0x20, 0xCC,
    0x2A, 0xC7, 0x08, 0x22, 0x50, 0xBA, 0xFC, 0xBA, 0x6E, 0x4C, 0x4E, 0x36,
    0x81, 0x10, 0x9B, 0x18, 0x1E, 0x10, 0x4B, 0xDF, 0x11, 0x10, 0x0D, 0x05,
    0xD3, 0x81, 0x06, 0x1F, 0xCD, 0x13, 0x26, 0xEE, 0xD7, 0xD4, 0x09, 0x19,
    0x24, 0x06, 0x04, 0x29, 0x23, 0x2E, 0x51, 0xF3, 0xAC, 0x4D, 0x81, 0xC8,
    0x0F, 0xA3, 0x19, 0x67, 0xAB, 0x96, 0x4A, 0xF2, 0xCD, 0x9C, 0x6F, 0x8C,
    0x87, 0x49, 0x2C, 0xAA, 0x3C, 0x7F, 0x2E, 0x2C, 0x61, 0xEB, 0xD9, 0xF8,
    0x09, 0x7F, 0x29, 0x12, 0xAD, 0x12, 0x27, 0xE3, 0x11, 0xFA, 0xE1, 0x1D,
    0x52, 0x95, 0x16, 0xB1, 0x5E, 0xC9, 0xFE, 0x20, 0x7F, 0x29, 0x3F, 0xE7,
    0x46, 0x27, 0xF8, 0xF1, 0x6E, 0x39, 0xC7, 0xFA, 0x73, 0x7F, 0x36, 0x28,
    0x69, 0xEB, 0xBC, 0xF9, 0xC5, 0x56, 0x2B, 0x2F, 0x04, 0x21, 0xEA, 0x08,
    0xEF, 0x7F, 0x28, 0xE7, 0x0A, 0x04, 0x19, 0x18, 0xFA, 0x14, 0xEC, 0xFF,
    0xF3, 0x81, 0x3B, 0xE2, 0xF5, 0x56, 0xEC, 0x60, 0x28, 0x3B, 0x26, 0xAF,
    0x23, 0xB4, 0xFA, 0xB9, 0xE5, 0x51, 0xA8, 0x9F, 0x21, 0x85, 0xAE, 0x3E,
    0xC0, 0x03, 0xC7, 0x01, 0xC5, 0x10, 0x48, 0x7F, 0x41, 0xAD, 0x49, 0xC5,
    0x6B, 0x25, 0xC5, 0x51, 0x52, 0xD4, 0xE1, 0xDE, 0xD8, 0x81, 0xCC, 0xAF,
    0x7F, 0x05, 0x19, 0x32, 0x6E, 0x74, 0xE8, 0x03, 0xBA, 0x21, 0xBC, 0xDB,
    0xBE, 0xAE, 0xFF, 0x68, 0x28, 0x00, 0x02, 0x1B, 0x2C, 0x7F, 0xF4, 0x07,
    0x1C, 0xF8, 0xD5, 0x0C, 0x11, 0x11, 0xE9, 0xDE, 0x0F, 0x04, 0xE7, 0xE1,
    0xE0, 0x81, 0xFB, 0x10, 0xD3, 0x21, 0x09, 0x0A, 0xDC, 0x01, 0x11, 0x1B,
    0xD3, 0xC9, 0x3F, 0x2C, 0x86, 0xFA, 0x0F, 0x81, 0x05, 0x52, 0x4B, 0x5A,
    0x55, 0xCB, 0x41, 0x50, 0x96, 0xFF, 0xFF, 0xFF, 0x04, 0x00, 0x00, 0x00,
    0x40, 0x00, 0x00, 0x00, 0xEC, 0x03, 0x00, 0x00, 0xBC, 0x09, 0x00, 0x00,
    0x08, 0xFF, 0xFF, 0xFF, 0x54, 0xF9, 0xFF, 0xFF, 0x00, 0x00, 0x00, 0x00,
    0x47, 0x08, 0x00, 0x00, 0x94, 0x10, 0x00, 0x00, 0x2F, 0x01, 0x00, 0x00,
    0x18, 0x00, 0x00, 0x00, 0xAC, 0x08, 0x00, 0x00, 0x97, 0xFF, 0xFF, 0xFF,
    0x14, 0x0E, 0x00, 0x00, 0x97, 0x0C, 0x00, 0x00, 0xC4, 0x01, 0x00, 0x00,
    0x5C, 0xFF, 0xFF, 0xFF, 0xB4, 0xFE, 0xFF, 0xFF, 0xE2, 0xFF, 0xFF, 0xFF,
    0x04, 0x00, 0x00, 0x00, 0x10, 0x00, 0x00, 0x00, 0x93, 0x79, 0x7F, 0x5D,
    0xEC, 0x6F, 0xA5, 0xD3, 0xC9, 0xC8, 0x2B, 0xC3, 0x5A, 0xD8, 0x37, 0xF4,
    0x00, 0x00, 0x06, 0x00, 0x08, 0x00, 0x04, 0x00, 0x06, 0x00, 0x00, 0x00,
    0x04, 0x00, 0x00, 0x00, 0x04, 0x00, 0x00, 0x00, 0x0A, 0xFF, 0xFF, 0xFF,
    0x80, 0xFF, 0xFF, 0xFF, 0x84, 0xFF, 0xFF, 0xFF, 0x0F, 0x00, 0x00, 0x00,
    0x4D, 0x4C, 0x49, 0x52, 0x20, 0x43, 0x6F, 0x6E, 0x76, 0x65, 0x72, 0x74,
    0x65, 0x64, 0x2E, 0x00, 0x01, 0x00, 0x00, 0x00, 0x14, 0x00, 0x00, 0x00,
    0x00, 0x00, 0x0E, 0x00, 0x18, 0x00, 0x14, 0x00, 0x10, 0x00, 0x0C, 0x00,
    0x08, 0x00, 0x04, 0x00, 0x0E, 0x00, 0x00, 0x00, 0x14, 0x00, 0x00, 0x00,
    0x1C, 0x00, 0x00, 0x00, 0x24, 0x01, 0x00, 0x00, 0x28, 0x01, 0x00, 0x00,
    0x2C, 0x01, 0x00, 0x00, 0x04, 0x00, 0x00, 0x00, 0x6D, 0x61, 0x69, 0x6E,
    0x00, 0x00, 0x00, 0x00, 0x04, 0x00, 0x00, 0x00, 0xCC, 0x00, 0x00, 0x00,
    0x84, 0x00, 0x00, 0x00, 0x3C, 0x00, 0x00, 0x00, 0x04, 0x00, 0x00, 0x00,
    0x96, 0xFF, 0xFF, 0xFF, 0x14, 0x00, 0x00, 0x00, 0x00, 0x00, 0x00, 0x08,
    0x10, 0x00, 0x00, 0x00, 0x14, 0x00, 0x00, 0x00, 0x04, 0x00, 0x04, 0x00,
    0x04, 0x00, 0x00, 0x00, 0x01, 0x00, 0x00, 0x00, 0x0C, 0x00, 0x00, 0x00,
    0x03, 0x00, 0x00, 0x00, 0x0B, 0x00, 0x00, 0x00, 0x02, 0x00, 0x00, 0x00,
    0x01, 0x00, 0x00, 0x00, 0xCA, 0xFF, 0xFF, 0xFF, 0x10, 0x00, 0x00, 0x00,
    0x00, 0x00, 0x00, 0x08, 0x10, 0x00, 0x00, 0x00, 0x14, 0x00, 0x00, 0x00,
    0x76, 0xFF, 0xFF, 0xFF, 0x00, 0x00, 0x00, 0x01, 0x01, 0x00, 0x00, 0x00,
    0x0B, 0x00, 0x00, 0x00, 0x03, 0x00, 0x00, 0x00, 0x0A, 0x00, 0x00, 0x00,
    0x04, 0x00, 0x00, 0x00, 0x03, 0x00, 0x00, 0x00, 0x00, 0x00, 0x0E, 0x00,
    0x14, 0x00, 0x00, 0x00, 0x10, 0x00, 0x0C, 0x00, 0x0B, 0x00, 0x04, 0x00,
    0x0E, 0x00, 0x00, 0x00, 0x10, 0x00, 0x00, 0x00, 0x00, 0x00, 0x00, 0x08,
    0x10, 0x00, 0x00, 0x00, 0x14, 0x00, 0x00, 0x00, 0xBA, 0xFF, 0xFF, 0xFF,
    0x00, 0x00, 0x00, 0x01, 0x01, 0x00, 0x00, 0x00, 0x0A, 0x00, 0x00, 0x00,
    0x03, 0x00, 0x00, 0x00, 0x09, 0x00, 0x00, 0x00, 0x06, 0x00, 0x00, 0x00,
    0x05, 0x00, 0x00, 0x00, 0x00, 0x00, 0x0E, 0x00, 0x16, 0x00, 0x00, 0x00,
    0x10, 0x00, 0x0C, 0x00, 0x0B, 0x00, 0x04, 0x00, 0x0E, 0x00, 0x00, 0x00,
    0x18, 0x00, 0x00, 0x00, 0x00, 0x00, 0x00, 0x08, 0x18, 0x00, 0x00, 0x00,
    0x1C, 0x00, 0x00, 0x00, 0x00, 0x00, 0x06, 0x00, 0x08, 0x00, 0x07, 0x00,
    0x06, 0x00, 0x00, 0x00, 0x00, 0x00, 0x00, 0x01, 0x01, 0x00, 0x00, 0x00,
    0x09, 0x00, 0x00, 0x00, 0x03, 0x00, 0x00, 0x00, 0x00, 0x00, 0x00, 0x00,
    0x08, 0x00, 0x00, 0x00, 0x07, 0x00, 0x00, 0x00, 0x01, 0x00, 0x00, 0x00,
    0x0C, 0x00, 0x00, 0x00, 0x01, 0x00, 0x00, 0x00, 0x00, 0x00, 0x00, 0x00,
    0x0D, 0x00, 0x00, 0x00, 0x50, 0x0A, 0x00, 0x00, 0xD8, 0x09, 0x00, 0x00,
    0x5C, 0x09, 0x00, 0x00, 0x48, 0x08, 0x00, 0x00, 0x2C, 0x07, 0x00, 0x00,
    0x18, 0x06, 0x00, 0x00, 0xFC, 0x04, 0x00, 0x00, 0xE8, 0x03, 0x00, 0x00,
    0xCC, 0x02, 0x00, 0x00, 0x08, 0x02, 0x00, 0x00, 0x44, 0x01, 0x00, 0x00,
    0x80, 0x00, 0x00, 0x00, 0x04, 0x00, 0x00, 0x00, 0xFA, 0xF5, 0xFF, 0xFF,
    0x00, 0x00, 0x00, 0x01, 0x18, 0x00, 0x00, 0x00, 0x20, 0x00, 0x00, 0x00,
    0x3C, 0x00, 0x00, 0x00, 0x0D, 0x00, 0x00, 0x00, 0x00, 0x00, 0x00, 0x09,
    0x50, 0x00, 0x00, 0x00, 0x02, 0x00, 0x00, 0x00, 0xFF, 0xFF, 0xFF, 0xFF,
    0x01, 0x00, 0x00, 0x00, 0xE4, 0xF5, 0xFF, 0xFF, 0x08, 0x00, 0x00, 0x00,
    0x10, 0x00, 0x00, 0x00, 0x01, 0x00, 0x00, 0x00, 0x01, 0x00, 0x00, 0x00,
    0x00, 0x00, 0x00, 0x00, 0x01, 0x00, 0x00, 0x00, 0x2B, 0xA5, 0x02, 0x3C,
    0x1B, 0x00, 0x00, 0x00, 0x53, 0x74, 0x61, 0x74, 0x65, 0x66, 0x75, 0x6C,
    0x50, 0x61, 0x72, 0x74, 0x69, 0x74, 0x69, 0x6F, 0x6E, 0x65, 0x64, 0x43,
    0x61, 0x6C, 0x6C, 0x5F, 0x31, 0x3A, 0x30, 0x00, 0x02, 0x00, 0x00, 0x00,
    0x01, 0x00, 0x00, 0x00, 0x01, 0x00, 0x00, 0x00, 0x72, 0xF6, 0xFF, 0xFF,
    0x00, 0x00, 0x00, 0x01, 0x18, 0x00, 0x00, 0x00, 0x20, 0x00, 0x00, 0x00,
    0x40, 0x00, 0x00, 0x00, 0x0C, 0x00, 0x00, 0x00, 0x00, 0x00, 0x00, 0x09,
    0x98, 0x00, 0x00, 0x00, 0x02, 0x00, 0x00, 0x00, 0xFF, 0xFF, 0xFF, 0xFF,
    0x10, 0x00, 0x00, 0x00, 0x5C, 0xF6, 0xFF, 0xFF, 0x08, 0x00, 0x00, 0x00,
    0x14, 0x00, 0x00, 0x00, 0x01, 0x00, 0x00, 0x00, 0x80, 0xFF, 0xFF, 0xFF,
    0xFF, 0xFF, 0xFF, 0xFF, 0x00, 0x00, 0x00, 0x00, 0x01, 0x00, 0x00, 0x00,
    0xD4, 0x9A, 0x20, 0x3C, 0x5E, 0x00, 0x00, 0x00, 0x73, 0x65, 0x71, 0x75,
    0x65, 0x6E, 0x74, 0x69, 0x61, 0x6C, 0x5F, 0x31, 0x5F, 0x31, 0x2F, 0x64,
    0x65, 0x6E, 0x73, 0x65, 0x5F, 0x35, 0x5F, 0x31, 0x2F, 0x4D, 0x61, 0x74,
    0x4D, 0x75, 0x6C, 0x3B, 0x73, 0x65, 0x71, 0x75, 0x65, 0x6E, 0x74, 0x69,
    0x61, 0x6C, 0x5F, 0x31, 0x5F, 0x31, 0x2F, 0x64, 0x65, 0x6E, 0x73, 0x65,
    0x5F, 0x35, 0x5F, 0x31, 0x2F, 0x52, 0x65, 0x6C, 0x75, 0x3B, 0x73, 0x65,
    0x71, 0x75, 0x65, 0x6E, 0x74, 0x69, 0x61, 0x6C, 0x5F, 0x31, 0x5F, 0x31,
    0x2F, 0x64, 0x65, 0x6E, 0x73, 0x65, 0x5F, 0x35, 0x5F, 0x31, 0x2F, 0x42,
    0x69, 0x61, 0x73, 0x41, 0x64, 0x64, 0x00, 0x00, 0x02, 0x00, 0x00, 0x00,
    0x01, 0x00, 0x00, 0x00, 0x10, 0x00, 0x00, 0x00, 0x32, 0xF7, 0xFF, 0xFF,
    0x00, 0x00, 0x00, 0x01, 0x18, 0x00, 0x00, 0x00, 0x20, 0x00, 0x00, 0x00,
    0x40, 0x00, 0x00, 0x00, 0x0B, 0x00, 0x00, 0x00, 0x00, 0x00, 0x00, 0x09,
    0x98, 0x00, 0x00, 0x00, 0x02, 0x00, 0x00, 0x00, 0xFF, 0xFF, 0xFF, 0xFF,
    0x10, 0x00, 0x00, 0x00, 0x1C, 0xF7, 0xFF, 0xFF, 0x08, 0x00, 0x00, 0x00,
    0x14, 0x00, 0x00, 0x00, 0x01, 0x00, 0x00, 0x00, 0x80, 0xFF, 0xFF, 0xFF,
    0xFF, 0xFF, 0xFF, 0xFF, 0x00, 0x00, 0x00, 0x00, 0x01, 0x00, 0x00, 0x00,
    0x6E, 0xF8, 0x8B, 0x3C, 0x5E, 0x00, 0x00, 0x00, 0x73, 0x65, 0x71, 0x75,
    0x65, 0x6E, 0x74, 0x69, 0x61, 0x6C, 0x5F, 0x31, 0x5F, 0x31, 0x2F, 0x64,
    0x65, 0x6E, 0x73, 0x65, 0x5F, 0x34, 0x5F, 0x31, 0x2F, 0x4D, 0x61, 0x74,
    0x4D, 0x75, 0x6C, 0x3B, 0x73, 0x65, 0x71, 0x75, 0x65, 0x6E, 0x74, 0x69,
    0x61, 0x6C, 0x5F, 0x31, 0x5F, 0x31, 0x2F, 0x64, 0x65, 0x6E, 0x73, 0x65,
    0x5F, 0x34, 0x5F, 0x31, 0x2F, 0x52, 0x65, 0x6C, 0x75, 0x3B, 0x73, 0x65,
    0x71, 0x75, 0x65, 0x6E, 0x74, 0x69, 0x61, 0x6C, 0x5F, 0x31, 0x5F, 0x31,
    0x2F, 0x64, 0x65, 0x6E, 0x73, 0x65, 0x5F, 0x34, 0x5F, 0x31, 0x2F, 0x42,
    0x69, 0x61, 0x73, 0x41, 0x64, 0x64, 0x00, 0x00, 0x02, 0x00, 0x00, 0x00,
    0x01, 0x00, 0x00, 0x00, 0x10, 0x00, 0x00, 0x00, 0xF2, 0xF7, 0xFF, 0xFF,
    0x00, 0x00, 0x00, 0x01, 0x18, 0x00, 0x00, 0x00, 0x20, 0x00, 0x00, 0x00,
    0x40, 0x00, 0x00, 0x00, 0x0A, 0x00, 0x00, 0x00, 0x00, 0x00, 0x00, 0x09,
    0x98, 0x00, 0x00, 0x00, 0x02, 0x00, 0x00, 0x00, 0xFF, 0xFF, 0xFF, 0xFF,
    0x10, 0x00, 0x00, 0x00, 0xDC, 0xF7, 0xFF, 0xFF, 0x08, 0x00, 0x00, 0x00,
    0x14, 0x00, 0x00, 0x00, 0x01, 0x00, 0x00, 0x00, 0x80, 0xFF, 0xFF, 0xFF,
    0xFF, 0xFF, 0xFF, 0xFF, 0x00, 0x00, 0x00, 0x00, 0x01, 0x00, 0x00, 0x00,
    0x95, 0x90, 0x73, 0x3C, 0x5E, 0x00, 0x00, 0x00, 0x73, 0x65, 0x71, 0x75,
    0x65, 0x6E, 0x74, 0x69, 0x61, 0x6C, 0x5F, 0x31, 0x5F, 0x31, 0x2F, 0x64,
    0x65, 0x6E, 0x73, 0x65, 0x5F, 0x33, 0x5F, 0x31, 0x2F, 0x4D, 0x61, 0x74,
    0x4D, 0x75, 0x6C, 0x3B, 0x73, 0x65, 0x71, 0x75, 0x65, 0x6E, 0x74, 0x69,
    0x61, 0x6C, 0x5F, 0x31, 0x5F, 0x31, 0x2F, 0x64, 0x65, 0x6E, 0x73, 0x65,
    0x5F, 0x33, 0x5F, 0x31, 0x2F, 0x52, 0x65, 0x6C, 0x75, 0x3B, 0x73, 0x65,
    0x71, 0x75, 0x65, 0x6E, 0x74, 0x69, 0x61, 0x6C, 0x5F, 0x31, 0x5F, 0x31,
    0x2F, 0x64, 0x65, 0x6E, 0x73, 0x65, 0x5F, 0x33, 0x5F, 0x31, 0x2F, 0x42,
    0x69, 0x61, 0x73, 0x41, 0x64, 0x64, 0x00, 0x00, 0x02, 0x00, 0x00, 0x00,
    0x01, 0x00, 0x00, 0x00, 0x10, 0x00, 0x00, 0x00, 0x26, 0xF9, 0xFF, 0xFF,
    0x00, 0x00, 0x00, 0x01, 0x14, 0x00, 0x00, 0x00, 0xE8, 0x00, 0x00, 0x00,
    0x09, 0x00, 0x00, 0x00, 0x00, 0x00, 0x00, 0x09, 0xF4, 0x00, 0x00, 0x00,
    0x8C, 0xF8, 0xFF, 0xFF, 0x08, 0x00, 0x00, 0x00, 0x8C, 0x00, 0x00, 0x00,
    0x10, 0x00, 0x00, 0x00, 0x00, 0x00, 0x00, 0x00, 0x00, 0x00, 0x00, 0x00,
    0x00, 0x00, 0x00, 0x00, 0x00, 0x00, 0x00, 0x00, 0x00, 0x00, 0x00, 0x00,
    0x00, 0x00, 0x00, 0x00, 0x00, 0x00, 0x00, 0x00, 0x00, 0x00, 0x00, 0x00,
    0x00, 0x00, 0x00, 0x00, 0x00, 0x00, 0x00, 0x00, 0x00, 0x00, 0x00, 0x00,
    0x00, 0x00, 0x00, 0x00, 0x00, 0x00, 0x00, 0x00, 0x00, 0x00, 0x00, 0x00,
    0x00, 0x00, 0x00, 0x00, 0x00, 0x00, 0x00, 0x00, 0x00, 0x00, 0x00, 0x00,
    0x00, 0x00, 0x00, 0x00, 0x00, 0x00, 0x00, 0x00, 0x00, 0x00, 0x00, 0x00,
    0x00, 0x00, 0x00, 0x00, 0x00, 0x00, 0x00, 0x00, 0x00, 0x00, 0x00, 0x00,
    0x00, 0x00, 0x00, 0x00, 0x00, 0x00, 0x00, 0x00, 0x00, 0x00, 0x00, 0x00,
    0x00, 0x00, 0x00, 0x00, 0x00, 0x00, 0x00, 0x00, 0x00, 0x00, 0x00, 0x00,
    0x00, 0x00, 0x00, 0x00, 0x00, 0x00, 0x00, 0x00, 0x00, 0x00, 0x00, 0x00,
    0x00, 0x00, 0x00, 0x00, 0x10, 0x00, 0x00, 0x00, 0x7D, 0xDF, 0x5D, 0x3B,
    0xDE, 0x4A, 0x2D, 0x3B, 0xBF, 0xBA, 0x28, 0x3B, 0xD0, 0xE9, 0x98, 0x3A,
    0xCB, 0xA7, 0x84, 0x3B, 0x6A, 0xF4, 0x96, 0x3B, 0xF8, 0xD2, 0x82, 0x3B,
    0xA5, 0x33, 0xF9, 0x3A, 0xD2, 0x3C, 0x22, 0x3A, 0x4D, 0x79, 0x83, 0x3A,
    0xFE, 0x2A, 0x4C, 0x3B, 0x88, 0x94, 0x69, 0x3B, 0x53, 0xEA, 0x8E, 0x3B,
    0xD6, 0x7A, 0xF8, 0x39, 0xFF, 0xB2, 0x69, 0x3B, 0xD3, 0x43, 0x82, 0x3B,
    0x12, 0x00, 0x00, 0x00, 0x74, 0x66, 0x6C, 0x2E, 0x70, 0x73, 0x65, 0x75,
    0x64, 0x6F, 0x5F, 0x71, 0x63, 0x6F, 0x6E, 0x73, 0x74, 0x37, 0x00, 0x00,
    0x02, 0x00, 0x00, 0x00, 0x10, 0x00, 0x00, 0x00, 0x01, 0x00, 0x00, 0x00,
    0x3E, 0xFA, 0xFF, 0xFF, 0x00, 0x00, 0x00, 0x01, 0x14, 0x00, 0x00, 0x00,
    0xE4, 0x00, 0x00, 0x00, 0x08, 0x00, 0x00, 0x00, 0x00, 0x00, 0x00, 0x02,
    0xF0, 0x00, 0x00, 0x00, 0xA4, 0xF9, 0xFF, 0xFF, 0x08, 0x00, 0x00, 0x00,
    0x88, 0x00, 0x00, 0x00, 0x10, 0x00, 0x00, 0x00, 0x00, 0x00, 0x00, 0x00,
    0x00, 0x00, 0x00, 0x00, 0x00, 0x00, 0x00, 0x00, 0x00, 0x00, 0x00, 0x00,
    0x00, 0x00, 0x00, 0x00, 0x00, 0x00, 0x00, 0x00, 0x00, 0x00, 0x00, 0x00,
    0x00, 0x00, 0x00, 0x00, 0x00, 0x00, 0x00, 0x00, 0x00, 0x00, 0x00, 0x00,
    0x00, 0x00, 0x00, 0x00, 0x00, 0x00, 0x00, 0x00, 0x00, 0x00, 0x00, 0x00,
    0x00, 0x00, 0x00, 0x00, 0x00, 0x00, 0x00, 0x00, 0x00, 0x00, 0x00, 0x00,
    0x00, 0x00, 0x00, 0x00, 0x00, 0x00, 0x00, 0x00, 0x00, 0x00, 0x00, 0x00,
    0x00, 0x00, 0x00, 0x00, 0x00, 0x00, 0x00, 0x00, 0x00, 0x00, 0x00, 0x00,
    0x00, 0x00, 0x00, 0x00, 0x00, 0x00, 0x00, 0x00, 0x00, 0x00, 0x00, 0x00,
    0x00, 0x00, 0x00, 0x00, 0x00, 0x00, 0x00, 0x00, 0x00, 0x00, 0x00, 0x00,
    0x00, 0x00, 0x00, 0x00, 0x00, 0x00, 0x00, 0x00, 0x00, 0x00, 0x00, 0x00,
    0x00, 0x00, 0x00, 0x00, 0x10, 0x00, 0x00, 0x00, 0x8F, 0xBF, 0xAE, 0x38,
    0x6A, 0x7C, 0x88, 0x38, 0x66, 0xE4, 0x84, 0x38, 0xE0, 0xDE, 0xF0, 0x37,
    0xCE, 0xF5, 0xD0, 0x38, 0x11, 0xC9, 0xED, 0x38, 0x4F, 0x13, 0xCE, 0x38,
    0xC5, 0x45, 0x44, 0x38, 0xEA, 0x8E, 0x7F, 0x37, 0x51, 0x19, 0xCF, 0x37,
    0xBE, 0xCD, 0xA0, 0x38, 0x0C, 0xF8, 0xB7, 0x38, 0x25, 0x1F, 0xE1, 0x38,
    0x36, 0xB4, 0x43, 0x37, 0x0A, 0x10, 0xB8, 0x38, 0xD3, 0x31, 0xCD, 0x38,
    0x12, 0x00, 0x00, 0x00, 0x74, 0x66, 0x6C, 0x2E, 0x70, 0x73, 0x65, 0x75,
    0x64, 0x6F, 0x5F, 0x71, 0x63, 0x6F, 0x6E, 0x73, 0x74, 0x36, 0x00, 0x00,
    0x01, 0x00, 0x00, 0x00, 0x10, 0x00, 0x00, 0x00, 0x4E, 0xFB, 0xFF, 0xFF,
    0x00, 0x00, 0x00, 0x01, 0x14, 0x00, 0x00, 0x00, 0xE8, 0x00, 0x00, 0x00,
    0x07, 0x00, 0x00, 0x00, 0x00, 0x00, 0x00, 0x09, 0xF4, 0x00, 0x00, 0x00,
    0xB4, 0xFA, 0xFF, 0xFF, 0x08, 0x00, 0x00, 0x00, 0x8C, 0x00, 0x00, 0x00,
    0x10, 0x00, 0x00, 0x00, 0x00, 0x00, 0x00, 0x00, 0x00, 0x00, 0x00, 0x00,
    0x00, 0x00, 0x00, 0x00, 0x00, 0x00, 0x00, 0x00, 0x00, 0x00, 0x00, 0x00,
    0x00, 0x00, 0x00, 0x00, 0x00, 0x00, 0x00, 0x00, 0x00, 0x00, 0x00, 0x00,
    0x00, 0x00, 0x00, 0x00, 0x00, 0x00, 0x00, 0x00, 0x00, 0x00, 0x00, 0x00,
    0x00, 0x00, 0x00, 0x00, 0x00, 0x00, 0x00, 0x00, 0x00, 0x00, 0x00, 0x00,
    0x00, 0x00, 0x00, 0x00, 0x00, 0x00, 0x00, 0x00, 0x00, 0x00, 0x00, 0x00,
    0x00, 0x00, 0x00, 0x00, 0x00, 0x00, 0x00, 0x00, 0x00, 0x00, 0x00, 0x00,
    0x00, 0x00, 0x00, 0x00, 0x00, 0x00, 0x00, 0x00, 0x00, 0x00, 0x00, 0x00,
    0x00, 0x00, 0x00, 0x00, 0x00, 0x00, 0x00, 0x00, 0x00, 0x00, 0x00, 0x00,
    0x00, 0x00, 0x00, 0x00, 0x00, 0x00, 0x00, 0x00, 0x00, 0x00, 0x00, 0x00,
    0x00, 0x00, 0x00, 0x00, 0x00, 0x00, 0x00, 0x00, 0x00, 0x00, 0x00, 0x00,
    0x00, 0x00, 0x00, 0x00, 0x10, 0x00, 0x00, 0x00, 0x8F, 0x89, 0x65, 0x3B,
    0x5B, 0x85, 0x7B, 0x3B, 0x27, 0x9C, 0x5E, 0x3B, 0x27, 0xE6, 0x3E, 0x3B,
    0xF4, 0xCE, 0x57, 0x3B, 0x0E, 0x77, 0x9A, 0x3B, 0xAA, 0x17, 0x31, 0x3B,
    0xCB, 0xAC, 0x5D, 0x3B, 0x5F, 0xAC, 0x54, 0x3B, 0x73, 0x7B, 0x38, 0x3B,
    0x9C, 0x4E, 0x5B, 0x3B, 0xB1, 0x8B, 0x46, 0x3B, 0x43, 0x72, 0x5F, 0x3B,
    0x29, 0x59, 0x5F, 0x3B, 0x80, 0x55, 0x4C, 0x3B, 0xCB, 0x77, 0x70, 0x3B,
    0x12, 0x00, 0x00, 0x00, 0x74, 0x66, 0x6C, 0x2E, 0x70, 0x73, 0x65, 0x75,
    0x64, 0x6F, 0x5F, 0x71, 0x63, 0x6F, 0x6E, 0x73, 0x74, 0x35, 0x00, 0x00,
    0x02, 0x00, 0x00, 0x00, 0x10, 0x00, 0x00, 0x00, 0x10, 0x00, 0x00, 0x00,
    0x66, 0xFC, 0xFF, 0xFF, 0x00, 0x00, 0x00, 0x01, 0x14, 0x00, 0x00, 0x00,
    0xE4, 0x00, 0x00, 0x00, 0x06, 0x00, 0x00, 0x00, 0x00, 0x00, 0x00, 0x02,
    0xF0, 0x00, 0x00, 0x00, 0xCC, 0xFB, 0xFF, 0xFF, 0x08, 0x00, 0x00, 0x00,
    0x88, 0x00, 0x00, 0x00, 0x10, 0x00, 0x00, 0x00, 0x00, 0x00, 0x00, 0x00,
    0x00, 0x00, 0x00, 0x00, 0x00, 0x00, 0x00, 0x00, 0x00, 0x00, 0x00, 0x00,
    0x00, 0x00, 0x00, 0x00, 0x00, 0x00, 0x00, 0x00, 0x00, 0x00, 0x00, 0x00,
    0x00, 0x00, 0x00, 0x00, 0x00, 0x00, 0x00, 0x00, 0x00, 0x00, 0x00, 0x00,
    0x00, 0x00, 0x00, 0x00, 0x00, 0x00, 0x00, 0x00, 0x00, 0x00, 0x00, 0x00,
    0x00, 0x00, 0x00, 0x00, 0x00, 0x00, 0x00, 0x00, 0x00, 0x00, 0x00, 0x00,
    0x00, 0x00, 0x00, 0x00, 0x00, 0x00, 0x00, 0x00, 0x00, 0x00, 0x00, 0x00,
    0x00, 0x00, 0x00, 0x00, 0x00, 0x00, 0x00, 0x00, 0x00, 0x00, 0x00, 0x00,
    0x00, 0x00, 0x00, 0x00, 0x00, 0x00, 0x00, 0x00, 0x00, 0x00, 0x00, 0x00,
    0x00, 0x00, 0x00, 0x00, 0x00, 0x00, 0x00, 0x00, 0x00, 0x00, 0x00, 0x00,
    0x00, 0x00, 0x00, 0x00, 0x00, 0x00, 0x00, 0x00, 0x00, 0x00, 0x00, 0x00,
    0x00, 0x00, 0x00, 0x00, 0x10, 0x00, 0x00, 0x00, 0x36, 0x63, 0x5A, 0x38,
    0xA3, 0x4D, 0x6F, 0x38, 0xF2, 0xCB, 0x53, 0x38, 0x48, 0xA0, 0x35, 0x38,
    0x54, 0x53, 0x4D, 0x38, 0x3F, 0xF6, 0x92, 0x38, 0x7B, 0x7D, 0x28, 0x38,
    0x37, 0xE8, 0x52, 0x38, 0xBB, 0x57, 0x4A, 0x38, 0x5F, 0x85, 0x2F, 0x38,
    0x7A, 0xA7, 0x50, 0x38, 0xBB, 0xE6, 0x3C, 0x38, 0xA8, 0x97, 0x54, 0x38,
    0xC6, 0x7F, 0x54, 0x38, 0x90, 0x68, 0x42, 0x38, 0x85, 0xC9, 0x64, 0x38,
    0x12, 0x00, 0x00, 0x00, 0x74, 0x66, 0x6C, 0x2E, 0x70, 0x73, 0x65, 0x75,
    0x64, 0x6F, 0x5F, 0x71, 0x63, 0x6F, 0x6E, 0x73, 0x74, 0x34, 0x00, 0x00,
    0x01, 0x00, 0x00, 0x00, 0x10, 0x00, 0x00, 0x00, 0x76, 0xFD, 0xFF, 0xFF,
    0x00, 0x00, 0x00, 0x01, 0x14, 0x00, 0x00, 0x00, 0xE8, 0x00, 0x00, 0x00,
    0x05, 0x00, 0x00, 0x00, 0x00, 0x00, 0x00, 0x09, 0xF4, 0x00, 0x00, 0x00,
    0xDC, 0xFC, 0xFF, 0xFF, 0x08, 0x00, 0x00, 0x00, 0x8C, 0x00, 0x00, 0x00,
    0x10, 0x00, 0x00, 0x00, 0x00, 0x00, 0x00, 0x00, 0x00, 0x00, 0x00, 0x00,
    0x00, 0x00, 0x00, 0x00, 0x00, 0x00, 0x00, 0x00, 0x00, 0x00, 0x00, 0x00,
    0x00, 0x00, 0x00, 0x00, 0x00, 0x00, 0x00, 0x00, 0x00, 0x00, 0x00, 0x00,
    0x00, 0x00, 0x00, 0x00, 0x00, 0x00, 0x00, 0x00, 0x00, 0x00, 0x00, 0x00,
    0x00, 0x00, 0x00, 0x00, 0x00, 0x00, 0x00, 0x00, 0x00, 0x00, 0x00, 0x00,
    0x00, 0x00, 0x00, 0x00, 0x00, 0x00, 0x00, 0x00, 0x00, 0x00, 0x00, 0x00,
    0x00, 0x00, 0x00, 0x00, 0x00, 0x00, 0x00, 0x00, 0x00, 0x00, 0x00, 0x00,
    0x00, 0x00, 0x00, 0x00, 0x00, 0x00, 0x00, 0x00, 0x00, 0x00, 0x00, 0x00,
    0x00, 0x00, 0x00, 0x00, 0x00, 0x00, 0x00, 0x00, 0x00, 0x00, 0x00, 0x00,
    0x00, 0x00, 0x00, 0x00, 0x00, 0x00, 0x00, 0x00, 0x00, 0x00, 0x00, 0x00,
    0x00, 0x00, 0x00, 0x00, 0x00, 0x00, 0x00, 0x00, 0x00, 0x00, 0x00, 0x00,
    0x00, 0x00, 0x00, 0x00, 0x10, 0x00, 0x00, 0x00, 0xE5, 0x19, 0xCA, 0x3B,
    0xF5, 0x33, 0xB5, 0x3B, 0x05, 0xC8, 0x29, 0x3C, 0xAC, 0x59, 0x9E, 0x3B,
    0x46, 0x9A, 0x54, 0x3B, 0x70, 0x8C, 0xEF, 0x3B, 0xE4, 0x43, 0xA3, 0x3B,
    0xFB, 0x2F, 0x9F, 0x3B, 0x4F, 0xB2, 0x1F, 0x3C, 0x64, 0x4B, 0xC9, 0x3B,
    0xC4, 0xF1, 0x8E, 0x3B, 0x63, 0x0B, 0xB5, 0x3B, 0xB0, 0x90, 0xBB, 0x3B,
    0x87, 0xE1, 0x48, 0x3C, 0xC7, 0x84, 0x27, 0x3C, 0xF9, 0x19, 0x63, 0x3B,
    0x12, 0x00, 0x00, 0x00, 0x74, 0x66, 0x6C, 0x2E, 0x70, 0x73, 0x65, 0x75,
    0x64, 0x6F, 0x5F, 0x71, 0x63, 0x6F, 0x6E, 0x73, 0x74, 0x33, 0x00, 0x00,
    0x02, 0x00, 0x00, 0x00, 0x10, 0x00, 0x00, 0x00, 0x10, 0x00, 0x00, 0x00,
    0x8E, 0xFE, 0xFF, 0xFF, 0x00, 0x00, 0x00, 0x01, 0x14, 0x00, 0x00, 0x00,
    0xE4, 0x00, 0x00, 0x00, 0x04, 0x00, 0x00, 0x00, 0x00, 0x00, 0x00, 0x02,
    0xF0, 0x00, 0x00, 0x00, 0xF4, 0xFD, 0xFF, 0xFF, 0x08, 0x00, 0x00, 0x00,
    0x88, 0x00, 0x00, 0x00, 0x10, 0x00, 0x00, 0x00, 0x00, 0x00, 0x00, 0x00,
    0x00, 0x00, 0x00, 0x00, 0x00, 0x00, 0x00, 0x00, 0x00, 0x00, 0x00, 0x00,
    0x00, 0x00, 0x00, 0x00, 0x00, 0x00, 0x00, 0x00, 0x00, 0x00, 0x00, 0x00,
    0x00, 0x00, 0x00, 0x00, 0x00, 0x00, 0x00, 0x00, 0x00, 0x00, 0x00, 0x00,
    0x00, 0x00, 0x00, 0x00, 0x00, 0x00, 0x00, 0x00, 0x00, 0x00, 0x00, 0x00,
    0x00, 0x00, 0x00, 0x00, 0x00, 0x00, 0x00, 0x00, 0x00, 0x00, 0x00, 0x00,
    0x00, 0x00, 0x00, 0x00, 0x00, 0x00, 0x00, 0x00, 0x00, 0x00, 0x00, 0x00,
    0x00, 0x00, 0x00, 0x00, 0x00, 0x00, 0x00, 0x00, 0x00, 0x00, 0x00, 0x00,
    0x00, 0x00, 0x00, 0x00, 0x00, 0x00, 0x00, 0x00, 0x00, 0x00, 0x00, 0x00,
    0x00, 0x00, 0x00, 0x00, 0x00, 0x00, 0x00, 0x00, 0x00, 0x00, 0x00, 0x00,
    0x00, 0x00, 0x00, 0x00, 0x00, 0x00, 0x00, 0x00, 0x00, 0x00, 0x00, 0x00,
    0x00, 0x00, 0x00, 0x00, 0x10, 0x00, 0x00, 0x00, 0x5F, 0x00, 0xDD, 0x38,
    0x1C, 0x26, 0xC6, 0x38, 0xBB, 0xA8, 0x39, 0x39, 0xB7, 0x28, 0xAD, 0x38,
    0x2A, 0x7C, 0x68, 0x38, 0xB8, 0xF9, 0x02, 0x39, 0x99, 0x88, 0xB2, 0x38,
    0x10, 0x13, 0xAE, 0x38, 0x95, 0xA1, 0x2E, 0x39, 0x8E, 0x1E, 0xDC, 0x38,
    0xFA, 0x4F, 0x9C, 0x38, 0xBF, 0xF9, 0xC5, 0x38, 0x29, 0x1B, 0xCD, 0x38,
    0xCA, 0xAA, 0x5B, 0x39, 0x51, 0x2F, 0x37, 0x39, 0xFA, 0x56, 0x78, 0x38,
    0x12, 0x00, 0x00, 0x00, 0x74, 0x66, 0x6C, 0x2E, 0x70, 0x73, 0x65, 0x75,
    0x64, 0x6F, 0x5F, 0x71, 0x63, 0x6F, 0x6E, 0x73, 0x74, 0x32, 0x00, 0x00,
    0x01, 0x00, 0x00, 0x00, 0x10, 0x00, 0x00, 0x00, 0x9E, 0xFF, 0xFF, 0xFF,
    0x00, 0x00, 0x00, 0x01, 0x14, 0x00, 0x00, 0x00, 0x30, 0x00, 0x00, 0x00,
    0x03, 0x00, 0x00, 0x00, 0x00, 0x00, 0x00, 0x09, 0x3C, 0x00, 0x00, 0x00,
    0x04, 0xFF, 0xFF, 0xFF, 0x08, 0x00, 0x00, 0x00, 0x10, 0x00, 0x00, 0x00,
    0x01, 0x00, 0x00, 0x00, 0x00, 0x00, 0x00, 0x00, 0x00, 0x00, 0x00, 0x00,
    0x01, 0x00, 0x00, 0x00, 0x83, 0x92, 0x05, 0x3C, 0x12, 0x00, 0x00, 0x00,
    0x74, 0x66, 0x6C, 0x2E, 0x70, 0x73, 0x65, 0x75, 0x64, 0x6F, 0x5F, 0x71,
    0x63, 0x6F, 0x6E, 0x73, 0x74, 0x31, 0x00, 0x00, 0x02, 0x00, 0x00, 0x00,
    0x01, 0x00, 0x00, 0x00, 0x10, 0x00, 0x00, 0x00, 0x00, 0x00, 0x16, 0x00,
    0x1C, 0x00, 0x18, 0x00, 0x17, 0x00, 0x10, 0x00, 0x0C, 0x00, 0x08, 0x00,
    0x00, 0x00, 0x00, 0x00, 0x00, 0x00, 0x07, 0x00, 0x16, 0x00, 0x00, 0x00,
    0x00, 0x00, 0x00, 0x01, 0x14, 0x00, 0x00, 0x00, 0x30, 0x00, 0x00, 0x00,
    0x02, 0x00, 0x00, 0x00, 0x00, 0x00, 0x00, 0x02, 0x3C, 0x00, 0x00, 0x00,
    0x7C, 0xFF, 0xFF, 0xFF, 0x08, 0x00, 0x00, 0x00, 0x10, 0x00, 0x00, 0x00,
    0x01, 0x00, 0x00, 0x00, 0x00, 0x00, 0x00, 0x00, 0x00, 0x00, 0x00, 0x00,
    0x01, 0x00, 0x00, 0x00, 0xB5, 0x98, 0xA7, 0x38, 0x11, 0x00, 0x00, 0x00,
    0x74, 0x66, 0x6C, 0x2E, 0x70, 0x73, 0x65, 0x75, 0x64, 0x6F, 0x5F, 0x71,
    0x63, 0x6F, 0x6E, 0x73, 0x74, 0x00, 0x00, 0x00, 0x01, 0x00, 0x00, 0x00,
    0x01, 0x00, 0x00, 0x00, 0x00, 0x00, 0x16, 0x00, 0x20, 0x00, 0x1C, 0x00,
    0x1B, 0x00, 0x14, 0x00, 0x10, 0x00, 0x0C, 0x00, 0x00, 0x00, 0x00, 0x00,
    0x08, 0x00, 0x07, 0x00, 0x16, 0x00, 0x00, 0x00, 0x00, 0x00, 0x00, 0x01,
    0x18, 0x00, 0x00, 0x00, 0x2C, 0x00, 0x00, 0x00, 0x48, 0x00, 0x00, 0x00,
    0x01, 0x00, 0x00, 0x00, 0x00, 0x00, 0x00, 0x09, 0x64, 0x00, 0x00, 0x00,
    0x02, 0x00, 0x00, 0x00, 0xFF, 0xFF, 0xFF, 0xFF, 0x01, 0x00, 0x00, 0x00,
    0x0C, 0x00, 0x0C, 0x00, 0x00, 0x00, 0x00, 0x00, 0x08, 0x00, 0x04, 0x00,
    0x0C, 0x00, 0x00, 0x00, 0x08, 0x00, 0x00, 0x00, 0x10, 0x00, 0x00, 0x00,
    0x01, 0x00, 0x00, 0x00, 0x80, 0xFF, 0xFF, 0xFF, 0xFF, 0xFF, 0xFF, 0xFF,
    0x01, 0x00, 0x00, 0x00, 0x7B, 0xA0, 0xC9, 0x3C, 0x20, 0x00, 0x00, 0x00,
    0x73, 0x65, 0x72, 0x76, 0x69, 0x6E, 0x67, 0x5F, 0x64, 0x65, 0x66, 0x61,
    0x75, 0x6C, 0x74, 0x5F, 0x6B, 0x65, 0x72, 0x61, 0x73, 0x5F, 0x74, 0x65,
    0x6E, 0x73, 0x6F, 0x72, 0x5F, 0x37, 0x3A, 0x30, 0x00, 0x00, 0x00, 0x00,
    0x02, 0x00, 0x00, 0x00, 0x01, 0x00, 0x00, 0x00, 0x01, 0x00, 0x00, 0x00,
    0x01, 0x00, 0x00, 0x00, 0x10, 0x00, 0x00, 0x00, 0x0C, 0x00, 0x10, 0x00,
    0x0F, 0x00, 0x00, 0x00, 0x08, 0x00, 0x04, 0x00, 0x0C, 0x00, 0x00, 0x00,
    0x09, 0x00, 0x00, 0x00, 0x04, 0x00, 0x00, 0x00, 0x00, 0x00, 0x00, 0x09
};
const int g_model_len = 3164;
